72 68
61 6e
6d 75
c3 a2
e2 80
e280 99
62 61
6b 75
79 61
69 72
6b 61
73 68
c3 ae
67 61
6c 69
77 61
65 6e
62 75
6d 61
6e 61
6c 61
6f 6d75
63 69
6c 75
6f 6b75
c3 aa
7a 69
616e 61
77 c3a2
7268 61
62 69
7268 69
6e 64
c3 a0
62 6f
72 61
67 65
c3 bb
72 65
c3 b4
7368 69
6972 61
67 75
6d 69
6e 7961
73 69
7a 61
67 6f
62 77
6e 69
7268 75
65 726869
77 65
79 6f
68 61
6972 65
6e 74
79 69
79 65
77 6f
6b 6f
6e64 61
6c 7961
79 c3a2
62 c3a2
6d 70
79 75
61 6261
6c 65
7268 65
6e7961 6d75
6e 65
62 616e
6d 616e
6c 6f
7368 61
616e61 6369
68 69
62 c3a0
6f 6275
68 65
656e 65
6972 69
64 61
68 75
64 69
64 65
61 6d61
c2 ab
c2 bb
73 61
6d 77c3a2
7a69 6e6461
68 6f
6d70 75
6d 77
c3ae 7261
6f 6c75
6b 776f
6e 6a
74 75
616e 65
6e 6761
6b 65
6e79616d75 7a696e6461
72 69
c3ae 7265
72 6f
62 65
6d 6261
68 616e
6b61 73
67 77
c3 a8
7368 75
6b6173 616e65
6e7961 6b6173616e65
63 c3ae
79 616e
65 6d
6b 616e
c3b4 6c61
7368 6f
6775 6d61
62 7761
7a 65
6e64 69
65 6269
66 75
77 c3ae
62 77c3a2
79 c3aa
6e 7975
67 7761
61 6b61
6a 697261
6277 c3ae7261
67 c3a2
67 69
656e 6761
79 c3bb
67 616e
6e74 75
6761 6c61
6275 6c7961
6d 776f
79 c3ae
6e 6b61
6b 77
6e 6f
6d77c3a2 6d69
73 697265
61 6861
6e c3a2
6a 61
6e6761 7369
7268 6f
7368 65
6d 76
69 73
65 6369
6d 7761
62 656e65
62 c3ae
6c 77
e280 9c
e280 9d
6465 726861
7369 6b75
6b6f 6c61
65 62
65 6d69
6865 6c69
61 62616e
74 69
6c 7761
7268 616e
7a c3a2
c3 b9
6d616e 676f
7261 68656c69
61 6c69
6973 726168656c69
6d c3a2
6d 65
67 77c3a2
6b75 6c69
62 616e61
6b61 7a69
6261 6761
79 c3b4
c3aa 7265
62c3a2 686f
6d75 6c69
6a c3a0
7975 6d76
6e79616d75 62c3a2686f
6b c3a2
6d c3ae
69 7a
72 75
6d 6f
67 656e
c3bb 6c61
74 61
6869 6b61
6d 6269
6c 79c3a2
c3ae 6e65
6e 6775
6972 75
626f 736869
6875 676f
726865 6765
c3aa 7261
656e 6765
7268 656e6761
c3aa 726f
626f 6e61
7265 6b
796f 736869
61 726861
6f 6277
c2 ad
726875 6d61
7368 616e
64 75
6b75 6c75
7268 7761
6d c3bb
61 6d75
7a 6f
6b 69
6e6a c3a0
6c 796f
63 61
616e 6b61
6c 79
6d70 61
6775 6c75
6b 697261
6e 7969
6e 6b
6c 616e
62 616e616369
c3a0 6c69
7268 7765
6c6f 6e
7a 697265
61 62
68 c3a2
6275 726861
6265 7265
6f 726861
6261 6b61
6d 626f
64 77c3ae
6e64 6f
726869 6d61
6261 6c69
6162616e 7475
62 79
6f6c75 62616761
6e74 796f
6f6d75 6e7475
62 7961
61 62c3a2
61 6d616e676f
6e61 7965
6b75 6d69
6e 656e65
62 c3bb
73 c3ae
77c3a2 6e69
6972 6f
62 79c3a2
6369 6875676f
616e 69
6a 69
656d 62657265
73 697269
6477c3ae 726865
79616e 7961
62 697269
64 c3a2
62 796f736869
6261 726861
63 6f
6d 7765
6b 7761
6e 676f
79756d76 61
c3aa 6e65
65 6d75
6777 c3aa
7a 75
6c 697261
7969 736861
6c c3aa
63 697275
63 c3a2
6b616e 7761
6972 7765
6d 697265
6972 7761
77c3a2 7765
6761 6c75
656e 67
68 7761
7961 6875
6261 6d75
74 65
67 7961
6d 6d75
6d75 67756d61
6b75 68696b61
7268 c3ae
69 6e6ac3a0
69 67756c75
7268 77
6d75 726861
626f 6b6f
6e 7761
736875 7a61
75 6469
6f6277 6f
6461 756469
6d616e 7961
6465 73697265
6c 776f
6d75 6e7475
73 c3b9
6f 6d77
736869 6e
6b 616e61
79c3a2 6765
62616e 7475
656e 7975
64 6f
76 75
77c3a2 626f
6e69 65
68 697261
7268656765 6b6f
6e74 69
66 69
79 c3b46c61
c3b4 6e65
c3ae 6e6f
6b75 7268656e6761
6777c3aa 726865
61 7969
73 65
6765 7261
6d75 6b61
64c3a2 687761
61 62c3a0
6d77 656e65
736875 62
6dc3ae 73697269
6761 6c69
6861 67756d61
68 c3aa
6269 726869
7965 7a75
6275 7a69
79c3a2 6b61
6f 6c7961
66 61
6e64 75
6c6f6e 7a61
68616e 6761
67 697261
7965 7275
67 c3ae
6e c3aa
6b75 6c7961
7368616e 6a61
6261 6c7961
79c3bb 6461
656e c3aa6e65
6b 77c3a2
7a61 6c65
6972 697261
68616e 6f
6277 656ec3aa6e65
79657275 7a616c65
697a c3ae6e6f
6277c3a2 6765
626f 6e65
6e 79
796572757a616c65 6d75
6f6d75 7268696d61
69 6e7975
6e 6ec3a2
62 c3a8
72656b c3aa726f
c3 b2
67 616e61
6e6a 69
77c3ae 726875
6b65 7261
62c3a2 6765
73 6f
6b c3bb
6f 6c69
656d75 6e6461
65 72
6d 6265
6e74 61
6d75 67616c61
68 c3a0
6d 62
6dc3bb 7361
6d77c3a2 6e61
6d61 6b756d69
65 6d70
6e 616e
6e c3ae
6c75 73696b75
736861 726875
6275 6c61
79c3aa 6d
6972 656e6765
6972 7961
6d61 68616e6761
6c c3ae
6e74 c3a0
6b61 6c69
6e74 c3a2
68 c3bb
74 6f
6e61 6c69
6c616e 6761
6275 6e6469
6e c3ae6e65
6e6ec3a2 6d6168616e6761
7368696e 67616e
6b75 726869
6277 c3ae
6261 6261
79c3bb 62616b61
68 7961
6277c3a2 6d69
6b616e 6469
6e7975 6d7061
656e 73696b75
7268 616e61
7969 7368
726875 6d697265
67 69727761
65 63
6dc3bb 6b61
7368696e67616e 79616e7961
6e61 626f
7368 c3bb
6d6261 6c69
6f 796f
6e 73696b75
6275 7a
6c 77c3ae
65 627761
6ec3a2 6e69
6b61 7268c3ae
c3aa 7a69
6761 74
6c 77c3a2
64 c3b4
656d 7761
6c61 6c61
6f 7761
616b61 62c3a0
6162c3a2 6e61
61 63c3ae
676174 c3ae
676174c3ae 6675
726861 6c69
73686f 6d
6d616e 79
6775 6c61
6e 67
6f 6e61
6b75 6261
6b75 62c3a0
6c c3aa726f
6b6f 6c6f
68 c3b4
65 6c69
67 776f
6d6f 6e69
6e 75
6c79c3a2 6765
66 c3a0
7268 c3bb6c61
69 7368
7a69 7a65
6dc3ae 736869
6c c3a0
c3ae 736865
79c3b4 726861
656e 7465
6f 726875
656e7975 6d7061
6261 6c61
6e74 65
6cc3aa 6269
6c c3a2
61 646573697265
61 6b616e7761
7461 676174c3ae6675
736861 67616c61
656369 6875676f
6765 7265
6d75 6e61
6ec3aa 6369
61 6b75
69 6b756d69
62616e 7969
61726861 6c69
7761 6c69
6b77 c3b46e65
67c3ae 7269
7975 6e6a
7368 c3a2
6d 7961
6b 656e67
61 6dc3a2
7268616e 6b61
6277 696e6ac3a0
77 c3aa
6c75 6d65
73686f 6c6f
7268 c3b46c61
67656e 6461
6d 697261
6b61 6761
616e616369 6d75
79c3aa 72656b
79616875 6469
6d616e 7965
6c 697265
6b75 6c61
7969 736869
6c75 676f
79c3aa 6e65
676f 736869
6f 6b77
c3b4 72686f
77 616e6b61
63 697269
6777c3a2 6765
6275 7965
73 69727765
6f 6b776f
6b c3b4
65 7269
61 686f
6d6261 6c61
7268 656e
7269 7961
6162616e 6469
68 c3aa7265
6c 69726f
7269 73
61 6a
67656e 6469
6e74 6f
6e6a 697261
61 6269
7a6f 736869
73 c3b4
7965 7265
79616e 6469
6b 726973
65 796f
6d616e 79c3ae
6b726973 7475
69 72686567656b6f
62c3a2 6c69
67656e 64
6277c3a2 7765
656e7465 72656bc3aa726f
736875 6269
62 796f
62 c3b4
74 616e69
6e61 6d75
64c3b4 7361
697a 697265
61 6c61
6861 736865
73686f6d 62616e7969
79616e 6b61
73 c3a2
6861 6c69
7a c3bb
6e61 6b75
697269 7a61
726f 6e69
736869 6d6261
6c75 62616761
6277 6f
6b77c3a2 6ec3ae6e65
61 68
62616e 7961
61 676f
6e746f 6e646f
6e 616e61
6f6b75 62756e6469
6562 796f
69 6461
7a c3ae6e65
6c65 7261
7a69 6275
72686f 6e64
6b c3bb6c61
6c79c3a2 6c61
6275 6c69
656e 6461
6b 656e
6d77 616e
6b61 7a
77 616e61
61 6465726861
79c3a2 6769727761
6f 6e69
6875 6d6269
6261 6269
656269 6e7761
6a 697265
6dc3a2 6e61
6e 6b75
67616e 6461
62757a 697261
70 61
6ec3ae 7369
6c65 6b61
6e74c3a2 7965
79756d76 c3ae
656e6761 626f
6e6a 61
68616e 7961
7368 697265
6d 79c3a26b61
79c3ae 726861
6261 63c3ae
62c3a2 626f
616e616369 6277c3ae7261
6c75 6e6761
6e 6b6f6c61
6f6c75 73696b75
7a61 677961
61 6b6f6c61
656e 6a697261
6d77c3a2 6c69
7368 c3ae
6f 7975
6b 697265
79c3bb 6261
79616e 6a61
6572 7961
62c3a2 6e61
62c3a2 7765
726875 6d69
6277 c3ae7265
6277 c3ae6e65
72 7765
6f 6c776f
67c3a2 6765
7268616e 75
726861 6d626f
7ac3a2 6765
67 697265
7a69 6d75
77 696e7975
6e6a 6f
726865 72656b
616e61 6c69
6275726861 6d6269
6875 6c75
6d616e79 697265
697a c3b9
616e616369 6261
656e 79616e7961
6869 6e6475
6f6b75 626f6b6f
7268616e 7a69
7961 6bc3b4
79616bc3b4 626f
61 6dc3ae736869
6d 62c3bb
6d61 73c3b9
6b65 7265
6d75 6b756c75
6d 6275
6b756c75 736861
616d61 7368616e6a61
6e 6e61
6277c3a2 6e69
79756e6a 75
64 616e69
616d61 72686567656b6f
6661 7261
67 c3ae7265
726869 6d616e7961
7969 67c3ae7269
68616e 676f
75 6c75
6b c3b2
6269 6e7761
6269 6369
6162616e 7961
6c6f 6e69
72 7761
6bc3a2 67
61 6ac3a0
79c3aa 7265
68c3b4 6669
6e74 7961
6f6b75 6c69
79c3a2 626f
6861 6d61
6b616e 7961
7361 756c75
6c75 6c69
62 c3aa7261
6761 7469
616e61 6d75
6e 7a69
6f 77
62616e 6461
656d 6275
61 68c3a2
6f6d75 64c3a2687761
6bc3a2 6765
79c3b4 626f
68 697265
6b75 67756d61
6f 6b61
616d61 73c3b9
68c3aa 6b61
616e 7a69
61 6369
62616e 6a61
7ac3a2 67
6277 65
6261 6ac3a0
6777c3a2 6e69
656e67 c3b472686f
61 626f
6c61 726861
6ec3a2 7765
7ac3a2 626f
6f6d75 7268c3bb6c61
7268 c3a8
6c c3ae7265
696461 686f
76 69
6c6f 6c61
6dc3a2 736869
6d77c3a2 6b61
74 7761
79c3aa6d c3aa7265
6275 6c79c3a26c61
6261 6b617a69
77c3a2 6c69
6d61 6c61
65 6b617268c3ae
6e7465 72656bc3aa726f
6f6b77 c3b46c61
68c3aa7265 726f
69 72687765
6261 6477c3ae726865
67c3a2 626f
73686f 6e7969
6562 79c3a2
6f6c75 6e6461
656e 7461
656e 61
66 c3b9
6e c3a8
63c3a2 6861
7368 77c3aa
616d61 73686f6c6f
73 75
72 c3aa7265
72 616e
7761 6275
616261 796168756469
c3b4 6e656e65
6d7761 6d62616c69
65 7969
616d75 6277c3ae7261
6475 6675
6c69 6b61
697275 6775
65 6d77
6f6275 6861736865
6d c3ae7261
6669 6c69
6c79c3a2 7765
77c3a2 6765
79c3a2 7765
6269 68756d6269
77 616e
7969 6d616e
6a 697a697265
656e7975 6d61
6261 6b75
6f 6277c3a26d69
6761 6c65
6d75 6c61
6d6261 6c6f
6b6f 6c657261
c3aa 7275
6e69 6e7975
61 726f6e69
6f 6dc3bb6b61
6f 6e6f
6b616e 7475
616261 64c3a2687761
62c3bb 6b6f
c3ae 726875
6261 726875
61 67
7268656765 6b61
6d65 7261
6d75 6b617a69
61 6761
61 6269726869
77 c3a8
6c c3a8
6d61 6c69
6a 6972697261
77 c3ae7265
68 c3ae7261
6f 6d77c3a26e61
62c3a2 6e69
6d616c61 68696b61
726861 62c3a2
6b616e 6f
6277c3a2 626f
6f 6c77
6c77c3a2 6765
6261 6b6f6c61
6a697261 6761
67 c3bb
62616e 6a69
6b c3a0
67c3a2 7765
68 697269
6c776f 736869
6c65 7669
6562 79
6261 62c3a0
61 626f6e61
65 6d61
75 6e6469
6f6275 7368696e67616e79616e7961
73c3ae 6d61
6f6d75 6c69726f
61 6277c3ae7261
6a 69726f
656e 64
656d69 72687765
7268 c3b4
6777c3a2 7765
61 79c3ae
7368 c3b4
6275 6b6f
7ac3a2 7765
697368 7761
6d61 626f6b6f
697275 6e6775
6269 726861
7469 6e69
6d61 6761
6279c3a2 6765
6c 77c3a26e69
62616269 6c6f6e69
6465 726865
6162 7261
616261 7268616d626f
6269 6e7975
6c65 6b65
69 6275726861
72686f6e64 c3aa7261
6b77 c3b46e656e65
79c3aa 736869
67656e 6465
6d77 69
6a c3a8
6e64 65
68c3a2 6e61
79c3aa72656b c3ae7265
6261 67616c61
616e 7961
6775 6c69
69 68616e6f
61 73687562
72686f 6e646f
6e 6675
616261 73686f6d62616e7969
69 6d75
79c3a2 6c61
7268756d69 7369
65 66
6d75 7268696d61
7268 c3a2
7268 697261
6f6d75 6b617a69
65 6869
68616e 7475
6261 6369
67c3a2 6e69
73697269 6b61
6777c3a2 726861
66696c69 73
7ac3a2 6769
6f6275 7ac3ae6e65
6275 6e6f
67616e 7961
61 726875
70 65
62616e616369 6d75
6d70 69
6a 6972
6f 6d77c3a26d69
6f6c75 62616e6a61
79616e 6461
68 c3ae7265
6c c3bb
7369 7a65
7675 726861
6c79c3a2 6e69
63c3a2 6765
65 6b75
c3aa 7a61
66696c6973 74696e69
79c3aa6d c3aa7261
6d 62c3a2
77 69
62c3a2 6761
6d61 7368616e6a61
7361 6c6f
6765 7a61
61 6869
6f6d75 6bc3b2
73 656e6765
6369 7268756d697265
6861 6d75
6d69 6e6ac3a0
6369 6369
656e 74
726865 7265
6d61 67616e61
6bc3bb 7a61
66 c3bb
79756d76 65
656d 7961
7368 656e6761
6b75 726861
73616c6f 6d6f6e69
7961 6c69
61 6777c3aa726865
7268756d61 6761
6e79 7765
6e74 79c3b46c61
6465 72687761
6f6c75 676f
66617261 6f6e69
6e79 697265
6dc3ae 7269
6b75 6465726861
6e6461 726875
65 6d77c3a2
62 656e
79c3aa 6865
6e61 6261
6b75 7a61
656279c3a2 6861
616d61 62c3ae
7268 c3bb
6277c3ae 7a697265
6c 77c3a27765
6277 69
61 6d
6275 736861
6865 72c3aa7265
6261 67756d61
7268656e 7a61
6f6d75 7369
79c3b4626f 6861
62 c3aa
6f6275 62c3ae
6e61 74616e69
6972 796f
c3bb 6261
6261 736861
6167 c3b46c61
61 6a697261
7475 6c61
65 636f
68 c3a8
6c61 6d6f
6b c3ae7265
61 6477c3ae726865
6d75 6e6461
6261 7969
6f6b75 6d75
6168 c3b46c61
6162c3a2 6d69
6465726861 6761
6275 6b61
7ac3a2 6e69
7368 7761
6f6b75 63c3ae
616e616369 6465726861
6869 6d6269
72686572656b c3aa7261
6e74 79c3a26c61
65 79c3b46c61
726861 6c65
6e6775 6c75
79c3a2 6e69
7a 697269
67616e 69
61 6b
6d77 616e61
66 c3ae7265
67616c75 6b61
61627261 68616d75
6c 697269
6d7765 736869
656d69 73c3ae
77 c3aa6e65
68616e 646f
796967c3ae7269 7a61
6c65 6865
69 62c3a0
6c6f 6cc3a0
616e 6e69
62 c3ae7265
6d 62c3ae
c3ae 727765
6168c3a2 6c69
67c3a2 6e6f
6275 7a696e6461
697a c3bb6261
796f 7a65
796f7a65 6675
6279c3a2 626f
73 c3aa7a69
6279c3a2 6861
636f 736869
6f6d75 67616c61
67616e 6f
65 7a69
656e 676f
616e6163696d75 6277c3ae7261
6e69 6f6e6f
6f6d75 62697269
65 7a
72 c3ae7265
6562 6972756775
63 69727961
62c3ae 726875
6e 79616e6a61
61 736861726875
726875 6c69
72616e 6761
7461 6275
656d61 6c756e6761
6e616e 6761
79756d76 69
65 726861
6f 6c6f
6f 63c3ae
62616e61 6c69
6261 6c75
6c65 6b69
796f 7a
6275 64756675
616d61 626f6b6f
6861 6c7961
6562 79c3b46c61
6d75 63c3ae
6f 6b6f6c61
79616e 6b
616261 66696c697374696e69
7369 6d6261
6e69 6e61
6261 6861
6275 6e
6d75 7a696e6461
61 7969736861
79616e 7a69
796f7a 77c3a8
6f6d75 6c616c61
6f 79c3b46c61
6761 6c7961
7761 6b61
616261 6277c3ae7261
7368616e 6769
656d 79c3a26b61
6b75 7a69
6775 726861
c3a2 6e69
6777c3a2 626f
6a c3a2
6261 6dc3a2
6d c3ae7265
6162 c3a8
73c3ae 72697961
6d75 6c756d65
6f 67776f
736861 6d62c3a2
6761 6761
6b656e67 c3aa7265
6d69 6b61
62 69727961
6d616e79c3ae 7361
6f 6261
6f6275 6b75
6e6761 6869
6475 6261
6c77c3ae 7361
61 6275
7368c3bb 62c3bb
6f 6775
6b656e 7969
6d75 68616e676f
7368696e 67c3a2
6369 73686167616c61
6869 676f
656d7961 6d62616c6f
65 63c3a26861
73687562 697261
6c 796f736869
7969 6d75
6777 c3ae
6d75726861 6d626f
6d75 6c69726f
6f6c75 68c3aa7265726f
6162 c3b46c61
69 736861726875
6c 656e6765
616d61 7675726861
7268656765 7369
6d6f 6c65
6ec3ae 726875
63 75
616261 736972696b61
69 62757965
6e69 656e65
7268c3ae 6e7961
6d616e 69
6e6675 6e65
726875 726861
656d70 69
6d616c69 676f
6c65 6b
616261 67616e6461
79756d76c3ae 726865
62616e7961 6d757a696e6461
72 c3a2
6b61 6369
726865 7261
79c3ae 7368
65 6275
61 7368757a61
6f6275 73c3b9
69 67616e61
616d61 6c69
6566 7261
6279c3a2 7765
6261 6d62616c69
74 77c3ae
79c3b4 6e6174616e69
62 c3b46e65
68616d61 67616c61
7268 656e6765
6b77 c3aa
6b65 7a61
64 c3bb
7a c3ae
6369 6b77c3b46e65
6261 6869
616e616369 7368757a61
6b6f 676f
6261 6a697261
6f6d75 6b6f6c6f
68616e 6469
6c616e 67c3a2
6b756c69 6b697261
68 79c3a2
6761 6269
6a 75
6d 6277c3ae7261
61 6b6f
6f6275 7268c3a8
6c6f6e 7a697a65
6777c3aa 726869
7a69 627761
7965 6c69
6d75 6c75
617969 7368
6275 7369
69 72686f6e646f
6b77c3a2 6765
6861 7368
6261 73686f
656d7069 6e6775
6775 7a61
73 616261
74 726f
72 64616e69
6c75 6b756c75
6e69 7a69
656e 79616e6a61
68616e 6461
6f 6777
7268 c3ae7265
73 616e
616d61 62757965
67c3a2 6cc3a8
796f 6e69
6775 6c7961
61 7268616e75
6d69 6e69
6e 79657265
616d61 6c61
65 62757268616d6269
736865 74616e69
6d75 726869
6c77c3ae 736869
73 c3b2
6275 7a61
616261 6cc3aa6269
656269 6e7475
69 6465726861
6bc3a2 7765
7268656765 73697265
7369 6e67
736865 6b657261
6f6275 7268696d616e7961
6c657669 7469
6269 6e61
6f77 756e6469
656e 746f
6e6775 6e75
62 697265
6275 62c3ae
6b656e67 c3aa7261
62756e c3b46c61
796f 7264616e69
67616e 7969
6e797765 7369
6b77 696e6ac3a0
6d75 6b6f6c6f
6261 7969736861
656e746f 6e646f
6d62 697265
6c65 6d6265
6d75 6c616c61
6269 736861
7369 6d6f6e69
6d75 7a69
656e7461 6d62616c61
6261 6d61
697261 6769
656e 7475
6b61 736861726875
6f726861 68c3ae7261
61 79756d7661
67616e 6469
6269 6e6469
6f 6e
7369 67c3ae7265
6f6d75 6cc3aa6269
656269 6a69726f
6c616e6761 7368
6a 65
616d61 67756c75
69 6261
6e 616e616369
c3ae 72
7a69 6e7975
68c3bb 6e61
6e 6777
6bc3a2 626f
7a69 7961
65 7a6f
67616c75 67616c75
6d616e 7969
c3bb 6c6f
7368696e67c3a2 6ec3ae6e65
6861 6dc3ae7269
6269 6e6a69
656d69 6b6f6c6f
6e 73686f6e7969
6261 79697368
7ac3a2 62c3ae
7ac3a262c3ae 6275
69 7368616e6a61
656e 7a69
6b61 7ac3a267
6c6f 736869
7a69 6d7961
6d616e79c3ae 736f
61 7268616e61
6f6b75 6a697261
7ac3bb 6b61
656e 73686f6e7969
6675 6b61
7369 796f6e69
616b61 6c616d6f
6c75 67756d61
656e 6f
74 c3b9
6261 6465726861
676f 6d69
79756d76c3ae 726869
7a 69727961
6d77616e 6475
6f 6d616e7965
c3aa7265 7a61
63 697261
7061 6f6c6f
6865 7261
7761 6d75
6cc3aa 726861
6d6f 77616275
6e 6369
6e7465 6265
6861 736861
6f6275 68616e7961
616261 6b617a69
6275 68616e7961
c3aa 6b6f
6d75 7461676174c3ae6675
6c75 6e6461
676f 6c6f
6e6e61 77c3ae726875
62c3b4 6865
6d76 75
656d 79616e7a69
67616e 796f
6d75 62697269
6275 7268616e7a69
7268 c3b2
616e6163696261 6277c3ae7261
68 616e61
6b 77c3a27765
69 6269726869
7268616e 67c3a2
62616e 6b61
79c3aa72656b 616e61
61 6cc3a0
6e 6769
6261 626f6e61
6e 67756d61
6d75 6369
62757a69 6275
61 79c3bb
63c3a2 626f
6875 6c69
6369 74616275
6e79616d75 6b617a69
c3bb 7369
6e 7a61
62 697261
6562 7961
79c3bb62616b61 6761
6ec3aa 6ec3a8
7268656e6761 6761
6675 6c69
6269 6269
6b61 6269726869
736861 6c69
616261 67756c61
6f6d75 63c3ae
6d61 62c3ae
6261 6275
6e 6765
656e7475 6d7761
73616261 746f
68756c75 6b61
6277 696e7975
7ac3bb 6261
6d75 6ec3a26e69
616261 67616c61
65 79
7268 77c3a26c69
7065 74726f
6c c3ae7261
656e6461 67c3a26e6f
6261 6269726869
6269 73686167616c61
7268616e 67
6562 6972796f
6b75 6b77c3a26ec3ae6e65
6c 656e6761
79c3ae 736869
77c3a2 6e61
7369 67616c61
6d616e 6761
6275 7268c3a8
6369 67756d61
616e61 6261
61726861 6369
6a61 6761
62616e 6469
7375 6e67756e75
6465 72686f
6d77 696e6ac3a0
c3b4 6e6f
69 6469
7261 6761
6f6277 c3b4
6f6c75 66c3b9
6f6d77 c3ae
6c616e 6765
73696e67 c3b46e6f
6b75 62c3ae
6f62776f 6e6a6f
6f6275 7a69
68c3a2 627761
6162c3a2 6c69
79756e6a 77c3ae7265
6c75 68c3aa7265726f
6bc3a2 6e69
68c3aa 6d61
76 617969
6261 67656e6469
61 68696b61
65667261 79696d75
6c75 6c7961
68 7765
6865 6d626f
69 7a61
6275 6ac3a0
6f6d75 6c69
77 616e65
67 c3bb6c61
6d62 c3bb6c61
7475 6d75
72c3a2 6d7961
676f 6d61
726875 6e6475
796f 77616e65
61 6d696e6ac3a0
616d61 7268616c65
6d77c3a2 6765
6879c3a2 687961
73c3b4 6d65
6f6d77 c3aa7a69
c3b4 62c3a0
79756d7661 677961
73c3ae 6d65
6765 726f
6c61 6261
79c3ae 6d61
61 6c75
6d76 69
6f6d7563c3ae 6d6261
6f6275 79c3aa6dc3aa7265
6b69 79616875
6a69 6e676f
6d77 c3aa7a69
656d6275 6761
6e7969 6e6a69
7275 7369
656c69 7961
656d69 726869
6769 736861
62 c3aa7265
616c61 6761
686f 736869
61 7a69
6261 68696b61
6e74c3a2 636f
6261 736869
73656e6765 726f
7961 6d696e69
6f6d757369 7369
6c75 6b61
6e 616e6b61
7461 62c3a2
65 7a61
6b756261 67697261
736861 6d62616c61
6c61 6d61
6777 c3a06c69
72687765 736869
6279c3a2 6e69
6e6761 626f
626f6e61 6761
6f 6369
6279 c3a06c69
7361 677961
6d7765 6c69
6c616e 7a69
6275 796168756469
6d c3a0
68 616e65
75 7a69
62656e 79616d696e69
63 c3aa
6b 69726f
6875 6d61
79 7761
6972 697265
7969 6e7975
6b6f 6e656e65
7361 6d77656c69
61 7268c3b46c61
6d75 6bc3a26765
63 697265
67 c3a0
726861 62616e61
6b61 62616e6461
79c3aa7265 6b61
64 c3aa
79616e6469 7369727765
7269 6b61
6e 6e696e61
6c69 67756d61
726877 c3aa
6d77 c3ae
66617261 7369
7368c3b4 6b616e6f
796f 77616275
61 79c3a2
67656e 646f
656d69 6c616c61
6b757a69 6761
6261 6b756c75
74 77
6f 6777c3aa726865
6f6b75 6ac3a0
6475 6b75
616d61 7268
6e6b6f6c61 6761
67616c75 6b65
697269 6261
6d616e 6a61
6d75 6d616e7965
6269 6e6ac3a0
6f6d75 67617469
6269 6e616c69
6e6777 c3a8
79c3aa 6e656e65
66 c3a8
726877 697269
79c3aa 7a69
656269 62757a69
79756e6a75 6c61
61 7368756269
6c77 c3a06c69
6572 796f
6261 79756d7661
616261 62757369
7361 6dc3a2
73616dc3a2 72697961
6b69 7a61
6777c3a2 7369727765
79696d616e 6761
6261 677761
6e6775 6b65
6261 7268616e61
6e6b 7761
6c6f 6c65
6675 6d6261
79616e6b 6972697261
736f 6c65
726875 6d697261
68c3a2 6761
6275 6861736865
6e61 6d6d75
656e 69
6261 62697269
6769 6e7975
c3bb 6b61
6b616e c3a26e69
6f6d75 72687765
6e 7965
656d6275 72686f
6d75 6c65
7368616e 6461
656e 6b61
6869 726869
6869 6d61
6c77c3a2 6c61
6e61 6dc3a2
6f62756b75 6e697a69
746162c3a2 726f
626f 6d6269
6261 7a69
6f 6277c3a2
65 7268616c69
697368 6972697a61
67 7965
7368 c3a8
7275 6261
72 c3bb6c61
6e61 63c3ae
68 79
6b75 6ac3a0
61 6b616e7475
79616e6461 6761
6b77 c3aa7275
6e79 7761
6b75 6cc3ae
6b6f 6cc3aa
6277 c3b4
616d61 6c756e6761
67 7765
79c3b4 73697265
65 64
6a6972 697265
6563 c3b46c61
6972 616e
7361 72616e6761
6e6ec3a2 6861
7a c3a06c69
6f6b75 68616e6469
6d 656e61
6c79c3a2 626f
6761 7961
61 6775
6d75 6bc3b2
6d77 616e6b61
7465 72757369
616261 6c6576697469
6875 6e6775
73 6972
79657265 6d69
68696e6475 6b61
7268656765 6b616761
6b75 7268756d61
6261 6bc3a2
73c3b4 6b657261
68696e6475 6c61
6d61 73686f6c6f
6d616e 6a69
73686f 7369
697a61 6b69
6675 6d61
6b6f 6c65
7a61 7269
7a 69727765
7269 7a65
6f6277 c3b46c61
6c616e67617368 616e65
656d75 7268696d61
67776f 736869
6c75 6c61
736875 6261
79c3bb 6c61
62616e 69
69 6b75
616e61 6b75
7961 7369
6761 726861
676f 7a69
74 7961
63 c3bb
6f6d75 7268616d626f
7965 686f
6265 726f
6b c3b9
6675 6c696b61
6369 726861
7268c3b4 6c65
656d70 c3bb7369
646f 6e69
63c3a2 7765
77 756e6469
6d62 697261
6765 72
65 6b
7769 6e6a61
7361 6c
79c3b4 726865
6c 7965
6d 616e61
67c3a2 6e65
6e 6b756261
6c69 6e656e65
616b61 7a69
6277c3ae7261 6761
6b6f6c61 6761
61 6d6f6e69
6b6f 726f
62 c3bb6c61
616261 6c77c3ae
6c65 7961
6b75 7a65
6f6b75 6e616c69
7061 67616e69
656d 776f
6f6d77 69
61 6275726861
72 697265
6e6a 696e6ac3a0
72686162c3a2 6c61
656e 67616e6f
72 c3bb
6e64 77c3ae
6861 736869
62616b61 7a
67657261 6d776f
c3b4 676f
6d616e79 697269
656d 6d616e6a61
6d75 6d75
72686f 6e7969
73616e 6f
7961 6d62616c61
6f6d75 6e6b7761
6f6b75 6261
6f62757a69 67697265
6c616e67c3a2 6c697265
79c3ae 72696b61
61 68697261
6c 69727761
61 68616e7475
c3aa 6ec3a8
6d75 64c3a2687761
6f 7268616e61
656269 73686167616c61
6f6b75 62c3a0
6e6965 6865
736875 6775
73686f 62c3b4
6d77 656e6461
6e 79616e7961
69 68c3aa6d61
61 6b616e7961
7969 6d756b61
726877 c3a8
6e 736869
61 7268616e6b61
6d656e61 7368c3a8
6369 7a61
6c c3b9
6275 7268756d61
6f6d75 67756d61
696469 76617969
6b75 6a697261
6369 68616e646f
62616e61 6d75
6c79c3a2 6c7961
7268 776f
656e 73696d6261
696461 6b6f
6dc3ae 7361
6d6261 6761
7368 c3bb6c61
656e74 c3bb6c6f
69 63c3ae
6b75 626f6b6f
6e7975 6d61
6e61 6369
6f6277 c3ae
7a75 6e67756c75
6b6f 736869
68697269 6769
6269 6a696e676f
79 697265
6261 6c756d65
6c69 726861
6a 6f
6b6f 6d61
6461 6b61
6e61 6d61
616d75 7368757a61
6861 6261
7961 6d61
6b 697269
61 7268616e
626f6e65 6b616e61
7969 736865
616261 6d62616c69
6d69 73c3ae
616261 7a696d75
6e61 676f
61 7261
6f6777 c3b46c61
79c3b4 6e65
726865 67616e7969
6d75 736869
61 7268756d61
6269 6875676f
656d 697261
77616c69 6861
6c75 7a69
6d75 62c3ae
6f6275 6b656e67c3aa7265
68 77696e6a61
796572656d69 79616875
79 656e
6861 726861
6d69 7961
62616e 6465
64c3a2 726869
6b75 6cc3bb
6865 6d6265
6f 6c7761
726861 6d6269
656e 6b756261
7761 6d61
6261 73c3a2
7369 6e6761
6e6461 6b776f
68616dc3ae7269 7a69
74 c3bb
6e 796f
64616e69 79656c69
736875 73686f
6c77 69
6265 7465
62 6972756775
67616e6461 62757a69
79c3b4626f6861 6761
6c6f6e7a61 677961
6c75 6265726f
6e74 77c3a26c69
6269 6e7475
6279 c3a0
61 7268656e6761
6c 77c3a2626f
61 7368
726875 6e61
656e 7969
6861 72c3a26d7961
79697368 697265
6d75 6e7961
6265 7261
6275 72687761
69 6a697261
6d77 c3ae726875
6c75 6b6f676f
6261726861 6369
6d 62c3a0
6c75 7368697265
69 736875
62756b6f 6e646f
62756b6f6e646f 6e6f
7a6f 7269
6b616e 69
7761 6b75
736861 6d69
61 72686f6e64c3aa7261
6869 7a697265
6c69 6d69
6261 7268656e6761
6275 6e656e65
6f 77c3a2626f
6b61 6261
6f6b75 726861
6275 6c697261
656e 6675
656d697261 73616e6f
6e61 62756b6f6e646f6e6f
616b61 6c656d6265
61 67656e64
736861 6d756b61
77c3ae 7269
79c3ae 726865
7268 c3aa7261
79c3bb6261 6b697261
6e64 c3a2
7761 6261
6b75 6c796f
79c3a2 6c7961
62757a c3bb6b61
62616b61 7ac3a26769
6375 6e6775
6e6162756b6f6e646f6e6f 7a6f7269
6dc3bb 736869
6761 7a61
6e 6e616e
656d69 7ac3a262c3ae6275
6b61 6c
6b776f 736869
6c c3b472686f
656e 6b6f6c61
7761 726875
6e6477c3ae 726865
6261726861 6c69
6d69 6b7761
616e 6469
6bc3bb 6c65
63c3ae 626f6e65
6f6d75 6c756d65
736865 72
61 67616e6469
6b 616e616369
62616261 6c697261
6f6d75 7368696e67616e79616e7961
6f6d75 6b756c75
616a 697a697265
6b 7765
62c3b4 6e656e65
c3bb 6cc3b9
6c75 726861
7368c3a2 6e69
746f 6269
73616c 6f6d75
616e 7469
6d65 7265
616d617268 77c3ae7269
656e 646f
616e61 62c3a0
6972 c3a2
6d61 67756c75
6865 6265
6f6275 6e7977657369
616261 6b756c75
62616e 6f
6f6c77 c3b46c61
6761 6261
6b65 726f
6162c3a2 626f
6f6c75 68656d626f
6562 c3ae7261
6563 c3bb
61 7369
6865 7a61
7369 726865
67616c61 6469
6275 6369
62 6972697261
616e616369 7969736861
67c3a2 6e616e
67c3a26e616e 6f
67c3ae7269 7a61
6162 73616c6f6d75
616d61 6c656865
7368c3bb 6c69
656b75 7a696d75
6b 77c3a26e69
616e616369 6ac3a0
6261 6d616c6168696b61
68c3bb 6e79697265
79 7765
6972 c3ae7265
6277c3ae 726875
6261 62c3a8
62616b61 7ac3a267
6865 6d75
72686572656b c3aa7265
67c3a2 6e61
6265 6c69
617969 736869
7369 627761
61 7975
656d 626f
656c69 736861
6465 7961
79c3a2 6b697261
62c3a2 6d69
6261 6277c3ae7261
7268c3bb 6c
6277 c3a06c69
6c77 c3ae7261
7761 63c3ae
6d75 6bc3a0
697261 6765
6562 697269
6f 62c3bb6b6f
72686f 6e7961
726861 6c61
61 79616e6b61
6261726861 6d626f
6b616e 7965
676f 726861
656e 67c3a26cc3a8
61 67656e6469
72 c3ae6e65
726865 676f
61 7361
656d69 7268696d61
6261 7469
7965 726f
6275 79c3aa6dc3aa7265
61 73
69 7268616e75
63 c3a0
69 6277c3ae7261
63 c3a06c69
656369 68696d6269
6b756cc3bb 7a61
73686f 6d6261
6d 69727765
7477 c3ae7261
6564 6f6d75
6c6f 6c
7969 6261
656e7465 6265
656e64 c3aa6b6f
6b 656e6761
6d75 7268c3bb6c61
6d61 746162c3a2726f
6f6275 64756675
6e 697261
73686f 7368c3b4
6f 6269
6d75 6ac3a0
6b69 6e7975
686572c3aa7265 6b657a61
6b c3aa
657a c3b46c61
6d c3aa7a69
656e 7368c3b46b616e6f
6261 6bc3a267
6d61 62757965
656e646f 676f6d69
6769 73686f
6b65 6d62c3bb
616e 676f
6261 6cc3a2
6d6d75 6277c3ae7265
6c61 6d75
72686162c3a2 6c65
676f 6d6265
7675 6761
7965726f 6277c3a26d69
7675 6861
6369 7268756d61
6f 6477c3ae726865
67616e7961 677961
6b61 6c7961
79756e6a75 7a61
6d62c3bb 6c697261
736869 6e676f
ca bf
6d75 6bc3a2
61 6d616e
69 62697269
6865 68c3aa7265
616e 616e
6269 79c3aa72656bc3ae7265
6d65 6c656b69
6c65 61
62 69727765
6b 656e6765
6e6b 616e61
6f6d75 726869
726877 616e61
676f 6e676f
6d61 6b616e6f
6d75 7368696e67616e79616e7961
6e64 77c3a8
6d77c3a2 7765
6777c3ae 7368
73c3a2 67
6c75 62616e6a61
6d75 6477c3ae726865
6461 6c69
6d69 7a61
616e616369 7268756d61
6275 6e6a69
6269 6a69726f
79616e6469 6b65
616d616c61 67616e796f
6f6d75 74756c61
6f 6c77c3ae736869
7368c3bb 726861
686f 6c6f
6261 67656e6461
6b75 7368696d6261
79616e 6b65
6661 72616e6761
616e6b61 62c3a0
6e69 6b61
6d77616e 7a69
61 6b616e61
7761 6369
79756d76c3ae726869 7a61
6b656e 677761
6261 6777c3aa726865
79c3aa6d c3ae7265
6275 6e61
6f 6b617a69
6562 c3a8
616861 6275
6f6d75 6e7961
7475 6c6f
79c3bb 7368c3bb6c61
6e 63c3ae
61 6c
6a6972 c3ae7265
6f 6c61
7268616e67c3a2 7a6f
6d75 6cc3aa6269
67657265 7261
657a61 75
7368616e 6761
6f 6a697265
70 6f
6b77c3aa 6261
72616e 757a69
6d75 7268616e61
616261 706167616e69
6661 72697a65
666172697a65 7969
6b61 62697269
69 6e69
7368756775 6e75
6b75 63c3ae
68 7965
6f726861 6c69
67 c3ae7261
63 c3aa7261
6ec3ae 6e69
6261 67656e64
6f6b75 6465726861
7368c3bb62c3bb 7a61
6d62c3ae 726865
7965 7269
6775 6c65
657a69 6e6469
73c3b46d65 72c3ae6e65
656369 68616e646f
6f6d77 c3b46c61
6d61 72686567656b6f
6f6c77 69
62776f 6e6a6f
656b 6c65
656b6c65 7a697961
63 65
656369 73686167616c61
6cc3a2 6cc3a0
6661 7469
6261 79c3bb62616b61
6e61 7969
73686f 7a697265
67616c75 6c61
61 736869
61 72
656269 6e6469
6c 69727961
6f6b75 6b75
6d70 616e7a69
69 68616e6761
61 7961
6bc3bb 7461
68c3bb 726861
6761 7368c3a26e69
6275 62c3a0
7a69 67697261
6f6b75 726877697269
686f 6e676f
6d7769 7a696d7961
62c3a0 6c69
6d6269 6b61
6e6461 6cc3a26cc3a0
6972c3a2 6c6f
6f 626f6e65
616261 7268756d697369
6e 67697261
6d61 67616c61
7368c3ae 626f
6f6b75 66c3a0
73c3b4 6b61
6b77 c3a06c69
6e61 796f
7268 c3a0
6f6c75 6e6469
67657265 7a61
6e7961 6761
62 6972796f
6869 6d7761
6261 6a
67c3ae 726875
6162 697269
6261 736861726875
656e 79616d61
616e6163696d75 7368757a61
6e6b61 6261
6c69 6e6469
6f6c75 6b6f676f
6b7761 7268756d61
6261 7268616e6b61
6d7761 6d62616c6f
6f6275 72686567657369
656e64 c3bb6cc3b9
61 6a69
6d61 6b6f726f
6d61 7369
656e 7368616e6769
6563 697261
65 6b616e7761
6275 7368696e67616e79616e7961
656c69736861 cabf
6e 73696d6261
73c3ae 6dc3ae7361
6f6c75 67656e646f
6b61 6c61
6f6c75 6c696d69
656e6b61 6675
6f 6ac3a8
726869 6e6469
6f726861 6369
c3aa 7a65
6369 68756d6269
6f6d75 73656e6765726f
656d 6972656e6765
6e 67c3a26cc3a8
6d75 726875
62c3a2 6c65
656e74 77c3a26c69
7965 7a65
62757a c3ae6e65
6e67 c3bb
7ac3ae 627765
616261 7368616d756b61
6c75 66c3b9
616e616369 62c3a0
66 c3ae
6d616c69 62756b6f
6869 73697265
6f 7268756d61
79c3bb6261 73697265
6f 79c3ae
6b75 6369
79616e64616761 6c697261
68 69726f
6d75 6c7961
726877 616e6b61
6e 7a697265
6f6d75 73686f6d62616e7969
6f6d75 6b656e7969
68 c3aa726f
656d6275 67c3a26e616e6f
7975 7369
6c65 6d61
7969 6e6a69
6261 7268616e
6d77 c3aa
68697261 6761
7461 6dc3ae7265
656e 7368c3a2
7268 616e616369
6e61 6b61
616d61 73687761
6f6d75 7a69
6b61 6c65
6f6b75 736875
6265 7469
6e 7765
6d6269 7a61
7268 77c3a2
657969 6e6469
736972 c3ae7261
6f6c75 646572686f
65 7275
6675 6c75
63c3a2 6e69
c3 ac
7969 6e6469
6f 7268616e
6d70 697261
6e 6e656e65
69 626f6e61
68c3aa 6b7761
6265 6b61
68c3aa 6b65
6563c3bb 6d61
6275 6d6261
79c3a2 6d61
6a61 6d776f
6b75 6d75
79c3bb 7368c3bb
7368c3ae 6761
61 6d6d75
6c75 6775
79616e6469 6b61
6179c3ae 6d61
67616c69 6c657961
74 7269
6b656e67 c3aa726f
69 6b61
6973 c3b9
61 79c3bb62616b61
6f6d75 6c75
79c3bb6261 6b65
6261 62c3ae
6275 6c65
656d77c3a2 6765
6761 736861
6e 67657265
6865 6d756b61
6b61 7368616d62616c61
79c3b4 6b6f6c61
656d77 c3aa6ec3a8
6b 616e65
67 c3a8
616d75 68c3a0
6269 6269726869
6e 6e
7368616d62c3a2 6c61
6e6ec3a26861 6d77c3ae726875
6cc3a2 6261
6f 62c3bb6c61
616e 6465
61 73c3ae72697961
6261 6c6f6e7a61
7368c3ae 626972697261
7a69 726861
656e6765 736f
6d75726861 68c3ae7261
6d75 62c3a8
79616e 7969
62 c3ae7261
6c 7765
6f 67616c61
64c3aa 6b657265
6777 696e7975
6e 7369
6775 6c6f
6b 77c3a2626f
68697261 6b776f
6c6f6c c3aa72657a61
6675 6d7961
6c77 616e616369
6d 7965
6f6275 726877c3a26c69
65 6b61
7965686f 7961
616d616c69 62756b6f
6e 79c3a2
70 69
7969 6775
6b77 69
6769 736865
6f6277c3b4 6261
7a c3ae726875
6f 62c3a8
63 616e6b61
6e75 6e75
62776f 736869
6d61 7268616d6269
7268 c3a06c69
79c3aa7265 6b65
626173c3a2 6b61
6369 68696d6269
65 73
6261 6775
63 616c69
736877c3aa 6b7761
6f72686168c3ae7261 6761
73686f7368c3b4 6b65726f
7361 7261
6369 67616269
6a c3ae7265
73686f 6761
6261 64c3a2687761
6d75 6275
616e 6461
6261 7961
6b75 66c3a0
626f6e65 6b61
7368616e 64c3a2
6361 7268756d616761
616261 6ac3a0
6b6f 6e6477c3a8
736f 6e69
6f 6a697261
6261 79c3ae
6d7061 6d696b7761
616b61 726869
61 6c6f6e7a61
726875 6d65
6d616e6761 6369
7675 6e61
6f6275 68616e65
796f 7a61
7368 7765
6c75 6d7761
6ec3a2 6b75
79c3a2 6bc3bb7a61
7a6f 6d626f
79 697269
616261 6c756d65
6cc3a2 6c61
6777c3a2 7268
7368 656e6765
656d77c3a2 626f
6875 6d6261
656d77c3a2 7765
6b6173 616e7a69
6e7461 6d62616c61
6777c3a2 72687761
6f6275 6869726869
676f 6c65
79c3b4 6361
656e 64c3a2
656e64c3a2 726f
6e676f 6c6f
6765 7a69
6b61 6c616d6f
6e65 7269
6f6275 6c616e67617368616e65
72686f6e64 c3aa726f
6d76 61
6e c3bb
6173687562 697261
61 67656e6461
616b61 7a
73 c3aa7a61
7265 7261
6e 6e6f
7a c3ae6e6f
6d75 7361
6d75 6269
6761 6469
6d77 c3aa7275
6d62 c3aa7265
62756c61 6761
656e 736172616e6761
6b61 6a697261
656d69 67617469
736869 6e6761
616b61 64756b75
6b6f 6261
6275 676f
6f6275 736861
6b75 6e61
6f6275 67616c65
656e 6b656e67c3aa726f
6e7975 6e7969
6775 6e61
6c6f 6c6f
6b61 726861
77c3aa 6865
6d75 6861
6275 6361
7a75 6e6775
61 74
68c3a2 6765
7a69 7a69
736875 62c3bb
7268656e6761 6d776f
6b616e 7969
6275 6e67756b65
65 62757ac3bb6b61
79 616e61
7268756d69 6b697261
7475 6e676f
697368 656d626f
6d61 72
73686f 6e65
6b75 67657261
6369 6e7975
6865 72686f
6d69 6b6f6c6f
7369 6b65
6d7769 6dc3a26e61
c3ae 7a65
6e736869 6e6461
6f 7969
6b6f 6e6f
6d c3a8
6861 62697269
6a 69727761
6e 6b756c75
62616e616369 7969736861
6261736861 6b756cc3bb7a61
6261 7969736869
656e6675 6e65
7761 6b617a69
6d 697269
6563697261 67c3a26e65
6f6d7769 7a696d7961
6d61 6c756e6761
616e61 63c3ae
6f6d75 68616e676f
616261 6c69
6c75 6761
656269 7268616e67c3a27a6f
61 6d69
7475 6d62c3bb
6765 7a65
6d61 73687761
62616d75 6277c3ae7261
656d77 696e7975
79616e6461 67616c61
6261 73686f6d62616e7969
73686f6d 796f
68 656e
67c3a2 6e616e61
6865 6d756c61
736869 6d6265
6265 6dc3aa7a69
6469 6b6f
6562 79c3bb
656369 6d616e79c3ae736f
61 6b616e
616e61 6b61
6c69 7a61
6972 79616e7969
6e6461 67c3a26e6f
6861 7461676174c3ae6675
6c75 62696269
6162 c3ae7261
616261 6c61
c3b4 6c69
616261 7368757a61
616861 6d6167616c61
6d616e 7a697265
6275 6b75
6269 6c61
6b 6972697261
6c69 6e61
726877 c3a06c69
6162c3a2 6c61
616d616c69 676f
6d 627761
62616e6163696d75 6277c3ae7261
656e 79756d7669
6f62756b75 7a65
63c3ae 626f
6c79 c3a06c69
6865 6261
77c3a2 62c3a0
7368c3a2 6261
6d77c3aa 6865
616261 6869
73c3ae 6d697265
68616e c3b46c61
6b 6972697a61
6972 697269
6765 726861
69 676f
69 7368616c69
6f6d75 6261
61 726865676573697265
6f6c75 62696269
616b61 7ac3a26769
79c3ae 736861
c3a2 6e61
6f6275 6c79c3a26c7961
6e7475 6d7761
6261 616c69
616269 6d62697a61
796f7a61 66617469
68756c75 6c61
68c3bb 7369
6cc3ae 6b61
6277c3a2 72686f
6269 62c3a0
626f6e65 6b657261
6865 62
74 7765
7368756269 7a61
68 656e6765
7965 6875
6d77616e 7961
6c77 616e61
6d75 7a696275
6261 6d616e7961
6b6f6cc3aa 7361
66756d6261 73697265
6e67 c3b472686f
6b75 6e6775
67c3bb 7a61
6f6b75 6c7961
656d70 616e7a69
68616261 626f
7a 616e7961
6e 666172617369
656e7461 6c65
6d7069 6e6775
6861 6d616e69
6c6f 6c69
6cc3aa 7268657261
62c3a2 677761
6f6b75 6bc3a2
74 616d61
6d75 7268756d697369
6f6d77 616e7a69
6f6d75 6869676f
616e61 6269
6e61 626f6e61
656d69 6869676f
6f6277 696e6ac3a0
6261 6ac3a8
6b c3ae6e65
7268656765 7369727765
616261 7368696e67616e79616e7961
61 6bc3a267
79657a65 6b6979616875
656275 73686f7368c3b46b65726f
6261 6c
67697261 6761
656b75 6c796f
6c65 6d616761
6861 6761
697a c3ae
62656e 69
6e 6777c3aa726865
7369 6761
6d75 6761
6d 6d616e79697265
7268616e 67756c61
6e6e61 77c3a2626f
6b756c69 6b697265
61 66c3a0
7a61 6769
7268c3bb6c 6972697a61
7a69 627765
6269 7268756d61
6a61 686f
6275 6b697261
6e7461 6c65
6f6d756c69 6e6761
656e 7369
6b61 6275
6162c3a0 6c69
67c3ae 72697265
656e 666172617369
6ec3a2 6261
676572 c3aa726f
72686f 6e7a69
6b65 796f
6b616e 6a69
73686f 686f
65 6b6f6c61
6e74 616b61
66 c3ae7261
7268656e 7a61677961
6f6b75 626f6e61
6f 627761
6e 67616e646162757a69
6e7969 6e6ac3a0
6869 7361
6c697261 6761
6261 72686f6e64c3aa7261
616d61 6d7675
6869 6b65
7475 6d69
736875 6b61
6875 736861
726861 6d61
616261 6b656e7969
726861 6d6261
656e 73687573686f
656e 736972c3ae7261
6269 62c3ae
6c75 6c616e6761
746f6269 7961
69 6ac3a0
61 72686567656b61
61 6bc3a2
6875 7361
726875 6d6261
6e7461 6369
6f6277 c3ae6e65
61 6675
6e64 c3aa6b6f
616e 6b616e61
6bc3a2 6675
736875 6e6775
6d c3b4
6c75 6765726f
6cc3aa 6261
616261 6c757a69
6f6d77c3ae 7368696e676f
62757a69 67697265
7268656e 7a697265
61 6461
616d61 736875
6b61 62c3a0
68756c75 7361
7a c3aa
656369 67616269
6d75 6261
6269 62757a69
6d75726861 6369
6d 6972697a61
616d61 7ac3ae6e6f
656e 616c69
7275 62656e69
6f 6d616e79697265
6c c3b4
6c61 6b697261
79c3bb 7361
7969 6b697261
62616c61 726861
6d75 6b6f6c61
736865 6b65
74 697269
6775 6d697a61
68 c3ae727765
7465 7269
616d61 72756261
6d61 72756261
6b75 736869
6369 6e61
73687562 697265
6861 6c61
66 65
6777c3a2 726865
6f 6bc3bb6c61
65 6361
6761 6d6261
6b6f 7a69
6269 736861726875
6d75 7268616e7a69
6d61 6cc3ae7261
79 697275
6f6275 6d616e7965
6d616e 75
6f6275 6b756c75
79c3b4 676f
6ec3a2 6d75
616d61 67616c61
6f6275 73c3ae6d65
6c69 62616e6f
726865 6761
6765 72c3aa7265
6e61676f 6769
6f6275 6bc3b9
726875 676f
61 6d616e7961
62657465 6c69
79c3a2 6761
6b6f 7a61
6465 7369
6777c3a2 726869
736865 6b61
6b c3a06c69
6f 6c656b65
61 6c6f6e7a697a65
61 62c3ae
6f6275 6c6f6e7a61
69676f 7369
7275 6b61
6bc3bb 7a65
6275 67756d61
67616e61 6c69
6f6c75 6765726f
62c3a2 6d776f
67617368c3a26e69 7a61
6c7769 6d626f
61 6c656b
61 67657261
616d61 74756d75
6669 6e6a61
6d6d75 6277c3ae7a697265
6f6275 63c3ae626f6e65
6c69 7369
657275 62616c61
656e 79656e
c3ae72 c3b2
736861 6b61
6761 6b776f
686972696769 726861
64c3bb 726875
6d6f 7269
686562 726f6e69
6477c3ae 7268c3ae7265
6e 7368c3a2
67 c3aa7261
616269 6d656c656b69
6d6f 73686f
6261 6c65
69 6e
6775 6dc3a0
6f6b75 79756d7661
6d69 7368c3ae626f
656369 7368c3bb6c69
6b75 626f6e61
6d75 7268616e
6f6d756261 6cc3a8
79c3bb 73
7a c3b4
6d61 7268616c65
6f6b75 6b617a69
63 c3b4676f
68616e c3bb6c61
6562 697265
6c75 7361
79756d7669 726869
66756c69 6b65
6179c3bb 73
67 69727765
67616e 6a61
65 62757a69
6f6d75 6c656e6765
726877c3aa 726877c3a8
676f 6c61
79 616e616369
6861 62c3a0
6261726875 6c61
67 c3b4
6f 62c3bb
6c75 62c3ae
6e7461 676174c3ae6675
616b61 6d6f6c65
6275 6c75
6d75 79756d7665
6265 74
7a696275 687961
656e64 79c3a26c7961
6869 6e6761
6475 6e6461
6d756c75 6d756e61
7761 6ac3a0
6369 6d616e79c3ae736f
6d75 7268c3b2
736865 6261
6261 7368616e
7369 6e7a61
6e61 6a697261
68697269 6d61
6261 676f
72686f 67657261
616b61 7ac3a267
7368616d62c3a2 7a61
6f6c75 6d7669
6d75 6277c3ae7261
6475 6d61
7965 67657261
656369 6e6469
616261 6c616e7a69
6f6d75 7268756d697369
726875 63c3ae
6e64c3a2 726869
6f 7969736869
6261726861 62c3a2
6f6b75 7368696d6261
6f726861 63c3ae
7ac3aa 7469
65 6d6261
6c c3bb6c61
6f6b75 646573697265
7365 6465
62616cc3a2 6d75
62616c61 6b61
6b69 6d75
6162 6e657269
7368 697275
6a69 6e6a69
6f6275 6cc3aa6269
65 62c3a0
6b75 7268616c69
6a 6f6b61
6261 79c3a26b61
7a69 6e6469
73c3a2 72c3bb6c61
73696b65 6d69
6f 676f
6369 62c3a8
6cc3ae 6bc3bb7a61
616e61 7969
6777c3a2 7268697261
72686567616e7969 7a65
6d75 67617469
6b75 6c656b61
61 6d70
c3ae72 697261
6675 74
656269 6e6a61
6e 6bc3a26675
73686f 6b6f6c657261
6972 616e61
74 c3a26e69
79c3ae 726875
6e6369 6e676f
616d61 7368616d69
6bc3a2 6769
6b756261 6769727761
6c 656e
6261736861 6d756b61
73686f 677761
6269 7268616e75
76 c3b9
616b61 7368616d62616c61
616261 7461676174c3ae6675
6b 77c3ae
63616c69 67756d697a61
796f 617368
6b69 7961
6f6b75 7369
68 77
73686572 c3aa7a61
61627261 6d75
656369 7a6f6d626f
68 796f
6861 7368697265
697ac3ae 6d69
6e646f 676f6d69
6261 7368757a61
6b77c3a2 6ec3ae6e69
69 79756d7661
6f6d75 676973686f
6f6d77 c3ae7261
6d61 6469
6275 6e7977657369
67 c3a06c69
6d6275 72686f
61 6dc3ae
6b61 7ac3a26769
77c3a2 6c61
6775 726875
656e 6465
6c6f6e 676f
6a75 6775
6ec3a2 7261
67617961 67757a61
6261 79c3bb62616b616761
6e6f 6e69
6675 6e6461
79657269 6b6f
79756d76c3ae726869 7a65
616e7469 79
616e746979 6f6b757369
6ec3aa 6ec3aa6ec3a8
6bc3a2 6761
656e 67756c75
63 c3ae7265
6e61 6277c3ae6e65
72656b 69
726f 6469
736869 6dc3a26e61
726865 67616e7961
6d75 6e79657265
6c61 68697261
6e796f 6b6f
6b75 6c65
6d77 c3ae7261
6d75 6ac3a8
656269 746572757369
6277c3ae 6e69
616269 7961
6b c3ae
6261 726869
6c79 c3a0
63c3aa 7361
7761 6dc3a2
6e7961 6d7761
6e79616d7761 6769727761
62616e61 6b617a69
6765 6465
6f 7ac3ae6e65
65 7765
6275 7268696d616e7961
616e616369 6d6277c3ae7261
6d6f 6c656b65
62756c61 6d626f
61 736875
6275 73697265
736967616c61 6761
6e7961 6d61
6761 7268756d61
67 c3b46e65
6c77 616e676f
69 79c3bb62616b61
67616c75 6c697261
69 6269
6869 747961
65 7961
6361 7268756d61
6f6d77 616e
6e 79c3b4
6f 6d77c3a26b61
67616e 7965
69736875 6e6777c3a8
6b75726869 6769
69 79c3b4726861
6b75 6c79c3a26c61
76 697269
69 6d6d75
6865 6b61
656269 73c3b46d6572c3ae6e65
6861 7369
69 7369726865
6c77c3a2 6b69726f
6f6275 72686162c3a26c65
6f6d757369 726865
6d757361 6c616261
726875 6d75
6279 616e61
c3bb 7275
61 6d616e79697265
6f 6761
6275 67616c69
656d 62c3a2677761
6b75 6e6761
656d75 6b6f6e6477c3a8
6777c3ae 6b61
61 7268c3a2
6f 6d77616d62616c69
6e61 6465726861
68 c3b46c61
616d 6277c3ae7261
7a c3a0
62c3aa 736861
6d 62697269
68697261 6d776f
6f 7a69
7461 6c
656e 73
6275726861 6c69
6d75 7969
68616e c3bb
6261 7368c3bb62c3bb
7a61 7265
6d 626f6e61
6c6f6e 676572657a61
656e 796967c3ae7269
656e796967c3ae7269 7a6f
6b69 736869
6277c3b4 6261
736875 7368616e
616261 666172697a657969
656e 79c3ae736869
6173 c3bb7275
7368c3bb 6769
6bc3a26761 7268c3ae
73686f62c3b4 7a61
6e74 c3bb6c6f
72 616e69
6b69 6e6769
697261 6761
62616e616369 6ac3a0
726875 6c75
616d61 73c3b2
6269726861 6b776f
6f6b75 6c7761
6f6d75 6ac3a0
6e74 616e6b61
6f 7268616e6b61
7a 656d776f
6761 7268616c69
66756b61 6d61
616e 67c3a0
6865 7265
6b65 7a65
6261 79c3ae726861
6e6b 656e67
6f6b75 6b61
62616261 6c697265
616e6163696261 7368757a61
61 67616e
73687562 6972697261
6d69 726869
6f6c75 62756c61
7a 697261
6d75 72687765
77c3aa 6e656e65
6d61 7675726861
736877c3aa 6b61
67c3a2 796f
67656465 6f6e69
736865 7261
686572c3aa7265 6b657261
69 74756d75
616261 6a696e6a69
616d61 73c3ae6d61
6f6b75 6d616e7961
616d61 6c616e6761
6f6b75 6c75
76 65
7461 72
6f6b75 79c3bb62616b61
6e61 6ac3a0
7761 626f6e61
62616e61 63c3ae
616d75 64c3b47361
6d77c3a2 626f
6e7461 6b75
6f 79c3bb6c61
7761 6c6f6e7a61
6775 6c697261
7268657265 6d61
6e74 616c69
c3a2 6761
73686f 6b6f
7a69 7268616c69
7ac3a2 6c61
6f6277 c3ae7265
7ac3bb 7361
6261 6a69
656d69 736f6c65
6d616e79c3ae 7365
6c77 696e7975
6d6172 646f
6261 67616e6461
62696c61 746f
6275 64616b61
6269 62c3a8
79756d76 616e7961
6261 6b65
62 c3b46c61
616261 68c3a0
6e64 c3b4
6261 6875
6775 6b75
6c75 73697265
6277c3a2 7268616c61
6c61 6b61
6c61 62616e69
656d69 7368616e6769
7361 6d75
6f6d75 6e676f
61 79c3b4726861
7a61 6d6261
6c75 6e6469
6f6d77616e 6475
79 c3a0
6f6277c3ae 6861
6d69 67617469
656369 74c3a26e69
7368c3a2 6e61
6a6972697261 6761
796f 7261
6c69 6b65
6e6465 73697265
6f6275 6cc3ae
627769 6e6a696e6ac3a0
6bc3bb 6c7761
656369 676f6c65
61 7a61
7965 736861
656d69 7268756e6475
6261 72
61 6c65
79616e 6b6f6c61
6261 6cc3aa6269
6f6275 63697265
726f 6d61
6d6172646f 6b65796f
6d65 747269
6b61 74756c6f
6c 616e61
6e616d75 6c61
6f 7268c3b46c65
6d69 6c616c61
6b616c 64657961
72 616e61
6d70 656e7a69
616e61 6465726861
79696d616e 7a697265
6b75 6861
7969736861 6761
6269 7268616c69
7369 6bc3aa
73696bc3aa 6c69
61 6c7961
6f 6a
6f6275 73c3b2
6777c3ae7368 c3ae7265
6c75 67656e646f
7268656e 7a65
736877c3aa 6b65
6b61 6265
6c6f6e 7a65
726869 6d6261
68616e 7a61
6269 746572757369
6d616e c3a8
6765 7a697265
6f6b75 7969
6b69 6e6ac3a0
62c3bb 6861
6d75 6b697261
7268616e 6769
6261 7268c3a2
616261 66c3ae7265
6b6f 6d65
656d70 656e7a69
6d69 7268696d61
796f736869 79616875
6ac3a2 6369
6d61 72697961
70 6572
6465 6d65747269
6277 616e61
736875 736861
6279c3a2 62c3a0
616b61 6c69
61 6b77c3a26ec3ae6e65
68696e6475 6b65
6c75 73c3b2
726869 6e6461
6d75 6e6f
6c69 6e7975
62616e 616e
6b656d62c3bb 6c7761
656e 666172616e6761
6d 62c3a8
616b61 6261
6c75 62c3a0
656e 67756c6f
6cc3ae 6bc3bb6c61
6b75 6e6469
6e 67616e61
656e 6475
656e 79c3b4726861
6b61 676f6d6265
6d7563c3ae 6d6261
66 656e6465
656d69 68616e676f
6f6b75 7368656e6761
7368616c69 7361
6f6275 6e67756b65
6869 6e6461
62756b75 6e697a69
616261 6861
67656e 677761
6261 7268756d697369
6d 79616e7a69
6562697265 6d7761
6573 74657269
7465 796f
676572c3aa7265 7a61
6b61 7268616e75
726877 c3aa7261
6361 7268756d697265
76 61
61 6a6972616761
6d75 6e
62c3a0 7268756d61
736875 6d69
6f 67656e64
6d75 6c656b65
6861 6461
61 67c3a2
68 656e65
736865 6c69
6d75 6e656e65
74 616d616c61
6861 6d6261
6e 7a75
7268616e 67697261
69 6369
68 c3a06c69
7269 7a61
616465726861 6761
6261 6b616e7961
736861 6761
77616e6b61 6369
697275 6d6275
6461 6275
6c61 6d62c3bb6c697261
77 c3a0
6f6d75 7368656b657261
6269 726865
7369 7961
74616c 656e7461
6f 7961
74 77c3ae7265
656d69 7368656b657261
6261 7368756269
61 62656dc3aa7a69
6c77 c3ae7265
6b75 726865
616d616e 64696b6f
6865 726f6469
6d 62756c61
7975 6e7969
6d6f 6c656b61
736875 6265
6f6277 656e6765
73696e67c3b46e6f 6c61
6b75 6e6f
6b697261 6761
67616e 6a
6d6261 67697261
6d 6277c3ae7265
6c75 68656d626f
7375 6e7a75
6761 7969
68 c3ae
7a 616e61
6a61 6b776f
6f6261 6277c3ae7265
6f 677761
6369 6e6469
6369 6675
6e61 64616275
6b6f 72
616261 726861
79c3aa 7275
6c75 6e61
6269 6dc3a26e61
68616dc3ae7269 7a61
6c616e67617368 616e61
6e 616e65
6269 68696d6269
6b6f 6d
79696d616e 7a61
617268616e61 6c69
61 736861
6d75 62c3a0
66756c69 73697265
64656d65747269 79757369
6f6d75 7268696d616e7961
73686f6d 7961
6b 69727761
69 66c3a0
6ec3bb 6875
7961 6d75
6f6275 6c756c69
61 68756c756b61
6d69 73
c3aa7265 7261
6f 6d77c3a26c69
6275 6e67756c75
6563 6972c3a26c6f
6e 736172616e6761
6f726861 79c3b4626f68616761
7965 67c3aa7261
6d616e7961 6761
617969 6d756b61
7761 6a697261
6b c3ae726875
6e7975 6d76
6d75 676f
6777 c3ae726875
6b61 64616c69
616e 64
7261 7368656c69
7761 6a697a697265
6cc3aa 726865
c3aa 727761
79696261 67697261
65 62c3ae
6e7961 6b75
6f726861 6d75
7368616e 67c3ae7261
6f6275 6c656e6761
72 697261
6f6d756c69 6e6469
726f 626f
65 6c6561
6c6f6e 67657a61
6d 6277c3ae6e65
6261 67657261
73616d75 736f6e69
6f6275 6c616e67c3a26c697265
6c75 646572686f
7369 6e61676f6769
6f6275 64616b61
616e 6765
68c3aa 6b657261
6b75 6e616c69
67656e6465 7261
6ec3a2 62c3a0
6dc3ae 6e7961
7969 6d69
7369 7369
6b61 72
6c75 7a61
6d626f 6e65
6775 7268616c69
656e67 c3ae7265
6972 c3ae
79c3a2 6b65
6e 677761
6d69 6e6a69
656d7961 6d7069
67616e c3ae72697261
7975 6e6775
6c61 6761
6e74 616e61
6b6f 7a697265
61 7368656e6761
6d616469 616e69
6b75 6e6475
6d 79c3aa7a69
79c3aa7265 6b657a61
6f 6e616e
79c3a2 6e61
6d c3bb6c61
6c69 7a69
726875 6b6f6c61
6275726861 62c3a26c65
6369 6e6ac3a0
66 616e69
6972 69727761
6261 747761
63c3ae 72616e757a69
6d75 726865676f
6e6a 75
796967c3ae7269 7a65
6f 6469
6861 6d69
79c3ae 6d696b61
c3aa 72
79c3aa7265 6b657261
616d 656e
6d6f 7469
6c75 6e6a69
726f626f 616d69
6b75 646573697265
656e 66c3ae
7268656765 6b65
656e79656e 79c3aa7a69
736875 7368697265
616761 6c
66c3bb 6b61
686f 6e61
6972616e 6761
6261 6c77c3ae
69 7a69
6d61 656c69
656369 676f6c6f
7268756d69 7a61
6162c3a2 6761
6261 6b616e61
6875 6e6469
7369 6d69
79 656e6461
6d77c3a2 6e69
616e616369 6a697261
6775 6b6f6c61
6d6261 6c65
62616e 64
61 63697269
6b c3ae727765
616e61 726875
7475 6d616761
6861 7a69
6f62c3bb 6369
6777 c3ae7265
6375 6d6269
656369 74616275
697a 6f
6f726875 68616261626f
656d 76697269
656c6561 7a617269
7965686f7961 6461
6b 79616875
61 6875
6d70 65
656e67 c3bb
62616e616369 7268c3b46c61
6775 6b61
6e69 6e69
7369 646f6e69
6269 72687761
736f 646f
6261 7268c3b46c61
7268616e67 6972697a61
65667261 7461
64c3aa6b657265 7a61
7761 6a6972616761
6e616e 79657265
6167c3a2 6c61
73 c3aa7a65
79c3aa 7261
68 c3b9
65 63c3ae
6d61 6c656865
61 6277c3ae6e65
6861 67756c61
6b756c69 6bc3ae7265
69 6875
7268776f 6e6f
6b65 7269
7965 7365
626f 6e69
6e61 6c6f6e7a61
6669 6e6a6f
6f 67656e6469
6275 6e616c69
68c3bb 6e65
6e69 6f
6c79 616e616369
6f6d75 62c3ae
6f6d75 6761
7675 6e6775
656e6b61 6c616e
656e6b616c616e 67c3a8
6269 67616c7567616c75
7368696d6261 6761
73686f6c6f 676f
6261 66c3a0
79756e6a75 7a65
6c75 68c3aa726f
6e64 79c3a26c7961
7268 656e67
61 79c3ae726861
6f6277c3b4 7268657265
6261 736972696b61
616e616369 72686567656b61
6469 7961
6675 6d75
706572 7369
7368757368616e 6f
66696c69 706f
6e69 6b616e6f
6e696b616e6f 7269
617975 6275
6e 73687573686f
656279c3a2 7369
616c61 6769
6b61 7969
61726861 6d75
616d61736875 736869
62616e 79657265
736861 6c61
616e616369 68616d6167616c61
6275 73c3b4
79c3b4626f 68697265
656e7368c3a2 6e6f
69 7969736861
62616e616369 6465726861
7961 6d6269
616a c3a8
616c69 6769
6269 7268697261
6c656865 6d75
6777 616e616369
6f6b75 67756c75
6b6f6c65 7265
6369 6e676f
726875 6c61
6261 6d6d75
736869 6d65
6f6b75 6269
6269 7a69
6c 79c3bb
6269 6b61
6f6d77 656e6461
6f6b75736875 6bc3bb6c61
626f 6ec3aa
6f 77616e6b61
7975 6469
67 656e65
62617368616e 69
6261 6777c3a2726861
6d69 7268756e6475
6275 6c79c3a26c7961
67c3bb 6bc3a0
6275 6b656e67c3aa7265
6d75 7268696d616e7961
7a697961 7369
686f6c6f 66
686f6c6f66 6572
686f6c6f666572 6e6f
73656465 6b79616875
6261 6d776f
6269 6e69
65 6c
6d75 6869
6f 68697265
72686f 6e61
66c3bb 6e69
69 6c69
6261 7268656e67616761
68616e 6465
656269 74c3b9
62616c69 6769
6e696e69 7665
736f646f 6d6f
656e 67616e646162757a69
776f 796f
656269 7368696e67c3a26ec3ae6e65
6761 6d776f
6162 c3aa7261
68c3a2 6e65
7265 7265
6475 62756c697261
c3a0 6d75
65 6277
6d70 c3a0
6761 6b6f6c61
6f6d757a69 676f
7268756d697261 6765
6277c3ae 6b697261
656e 6e616e6761
69 726875
79616e6b 6972697265
6275 6c6f6e7a61
6b756261 67c3ae7265
6d75 6a697261
6e61 6c61
6b61 7261
6261 67756c61
6f6b75 6b757a61
69 63756d6269
6d7069 6e6761
62616761 6c75
6f6275 68616dc3ae72697a69
656d69 7268616d6261
6d756c69 6e6761
7961 6dc3a2
646f 6b69
7a69 6e61
c3aa7265 726f
6775 62c3a0
6f6b75 6c656b61
6d75 626f6e61
6b61 7a616769
6d75 7268756e6475
726877c3aa 6865
616dc3a2 6465726861
73656e6765 7261
65 6d62616761
7a61 6b61
7975 64657961
6275 6c616e67617368616e65
79756469 7469
6b616e616369 6e7469
6c75 7268616e7a69
79c3ae 7361
79c3b4 6c6f6c6f
c3aa 7361
6f 6bc3a2
6369 6e656e65
616e61 6761
7368c3ae 6765
6c69 62c3a0
656269 6875676f
69 687765
6675 6e6469
6c77c3a2 62c3a0
6168c3a2 6c61
6777c3ae7368 697261
6d75 7969736865
656269 726861
69 736869
6e6e6f 6e
7268c3ae 6e79
6269 6e7969
6e 73756e67756e75
6269 6b6f6c61
6b c3b46e65
6d756b61 7a
62657465 6c6568656d75
63c3aa 7365
6b61 67756d61
627961 62c3ae7265
6e74c3a2 6b6f
656e 656e65
7365 7261
6cc3ae 7361
6563 c3b4676f
6f7761 6c69
6f6b75 6d6d75
7275 6e6775
6c75 62657265
656369 74c3b9
616d61 68616e6f
6d7761 63c3ae
6c75 6d7669
6261 6a697265
6f6275 64c3a2687761
6261 7461676174c3ae6675
6d62 c3aa7261
6d69 6e7961
6f6d75 7a696d75
6562 79c3b4676f
7a69 726875
79c3b4626f 687961
6b77c3a2 6e616e61
7268c3b4 687965
6e 7368c3b46b616e6f
6c616e67c3a2 6c697261
6f6d75 687961
6e 7a696275
c3ae 6d61
70 746f
66c3bb 6b65
6c75 6369
656e67756c75 6d697261
62616261 6c69727761
69 64c3bb726875
61 7269
616e616369 7268c3b46c61
6f 6465726861
6d77 696e7975
6d75 73686f7369
6f6b75 6369
616e616369 64c3b47361
79c3b4 6d6f
74c3bb 6475
7268 697265
68c3aa7265 7a61
6d7567756d61 67756dc3a0
6d77616d62616c69 6b617a69
74 c3a2
6e61 6269
6e61 62796f
62616e616369 6277c3ae7261
6465726865 7261
616a 697265
6d75 6777c3aa726865
6775 7361
6f 77696e7975
68 796f736869
6261 68c3a0
7a756e67756c75 6b61
726865 6261
657268616c69 6d776f
7368696e 6765
6275 726877c3a26c69
62 79c3bb
6c 79c3bb6c61
676f 6d657261
676f 6d6269
6f6275 67616c69
6b 697a6f
656d69 74756e676f
7975 6dc3a2
6261 6c697265
64c3bb 6c696b61
656d69 676f7a69
7361 646f6b69
736877c3aa 6b657261
6869 7a65
61726861 6b61
79c3bb 6b6972697a61
726875 6b61
68756e6775 6d756b61
6775 7268756d61
6e6a 697265
616261 6d75
73686f 67616761
6b75 6c7761
6f6c75 62c3ae
6572 79
6265 7961
c3aa 6475
6c756c69 6d69
6777c3a27268 69726f
6c75 6e6777c3a8
6275 6c616e67c3a26c697265
6b756261 67697265
6e616e616369 626f6e61
73c3b46d65 727761
7469 6d6f
79 697261
6269 62697269
6b75 6d6261
64 c3bb6c61
6869 6761
62616e61 6477c3ae726865
67 697269
6e 666172616e6761
6261 6a697a697265
63 616e61
6e 67616e
62616261 7a61
656e7368c3a2 6c69
617261 6d75
66756b61 6d6972697a61
72687761 6b75
6279 616e616c69
6d77 c3aa6e65
62616861 6dc3ae7269
726861 6765
6f 646572687761
6f 6d776f
6d776f 736869
6d75 7368c3a26e61
6972697261 6761
62616e61 6261
626179697368 697265
6769 7a69
6275 6e6775
6261 73687562
656269 736967c3ae7265
6e64c3a2 726f
6d 627765
6c6f 676f
6c656d6265 7261
6c 6972
6d70 616e
616e616369 63c3ae
79c3b4 6b657261
7268c3ae6e79 69726f
6775 7a69
736869 6d62697265
6261 7a696d75
68c3a2 6261677761
6d69 68616e676f
6f6275 676f6d61
79616e6469 6b697261
6d75 6b757a65
67616261 6f6e69
63c3ae 6b75626167697261
6b75 79616e64697369727765
6c6f6e 7a
6765 72656b69
74696d6f 7465796f
6e7969 67c3ae7269
6b616e6163696e7469 6e64616b776f
6d75 72686f6e64c3aa726f
6265 72c3bb6c61
69 736861
6e61 79756d76c3ae726865
616d61 6c756d7761
69 6c6f6c61
6c77 c3a8
6c6f 7469
6275 687961
616261 6b75
6275 6e6761
6f 6d70
6973 6d61656c69
67616e6a 7761
73 656e67c3ae7265
6c616e 67c3ae7261
6d75 63c3aa7261
6f 67656e6465
6d75 6277c3ae6e65
6e64 697261
616e61 72686567656b616761
6f 6d7761
61 6d6f
6865 7275
6e64 c3ae
79c3aa72656b 616e65
7a 6972
6e61 6a697a697265
6d7761 6d61
6f 6d77616d62616c6f
79c3aa72656b c3ae6e65
6d75726861 79c3b4626f68616761
6d75 6c6f6c65
656e 63696e676f
c3aa 6b61
62616e61 6b75
616e61 6c75
6f6b75 6e797761
6261 6d616e7965
6261 626f6e65
6c61 7ac3b4
726877 c3aa6e65
6a75 67756d61
67657265 6765
6369 7a69
6566 6f6469
76756e6775 6e7975
6a697261 677761
65 7268616e6b61
6b77 616e6b61
7a65 7269
6775 6e6475
736f 6d61
62616261 6c65
7761 6269
6269 74c3b9
7969 7a
736861 67616c75
6e61 6275
6cc3a2 6269
63756e6775 7a69
66 c3bb6c61
6f6275 7368697275
686f 6e69
616c61 6d65
6e6a 65
6f6277c3a2 72686f
6d75 6869676f
6275 6cc3ae
686572c3aa7265 6b657265
6e6675 6c61
6d6f7269 7469
65 6c61
79c3a2 62c3a0
616d61 6c656b69
6f6d75 67c3ae
6f 6277c3ae7261
616e61 64657268616761
6261 73687562697261
616261 726875
6c75 62c3a8
656e 7a65
6261 6b69
6b656e 7a69
6277 c3b46e65
68696e6475 73697265
61 6d616e7965
6261 6bc3a2626f
6861 7469
6179c3ae 6d616e7a697265
6261 726865
656e 73686f686f
6369 6e7475
6b75 6c6f6e7a61
6369 62c3a0
68 c3aa7261
616261 6477c3ae726865
6d7761 6b617a69
6f6e61 6d75
6275 6c756c69
6c75 7461676174c3ae6675
656d70 c3aa726f
6775 6e6469
73 c3a8
686572c3aa7265 6b657a65
68616e 6b616a697261
62616e61 6b61
627769 6dc3a26e61
6f6275736861 67616c756b65
656369 68c3bb7369
6b75 7268756d697265
6277 616e6b61
6875 6c696b61
736869 6b61
6f6275 726861
68616d61 6761
6269 79616e64697369727765
6d6973 7061
79697a 7265
616369 62c3a26761
6d75 67616e69
6ac3a2 63697261
6d75 68616e
616dc3a2 6d69
7268616e67c3a2 6c61
6e6465 72686f
656269 6e79756e7969
656279c3bb 6269
656d61 6c616e6761
6f6d75 736869
6c65 6d65
6162616e 79657265
7368c3bb 6b61
6369 74c3b9
7261 6d61
61 66c3ae7265
6261 7368616e6461
6b77 616e61
69 62c3aa7261
6b77c3aa 72686f
6563 c3b462c3a0
6f79c3ae 736865
656d75 68616e6461
72687761 6d75
6675 6e67697261
68756d61 6b776f
6f6b75 7268c3ae6e7961
6f 6465726865
6265 72
68c3a2 676f
6e6461 68c3ae7265
69 726877c3aa726877c3a8
6d75 67616c65
6261 6bc3bb6c61
6c 77c3ae726875
6f6b75 68c3a26e61
6275726861 6761
6e61 79756d7661
63c3ae 726875
6579 c3ae7261
74756d69 726861
6c 69727765
62c3a0 646573697265
62616d75 7368757a61
616261 73686f
726875 6369
6f6275 6ac3a0
6d7761 6c6f6e7a61
6b6f72 c3a8
6775 62c3a8
6c65 6b616761
79c3b4 6865
6d70 c3bb7369
736875 7a65
6d70 616e6465
736869 6761
616e 616e69
6777 616e61
6d75 6c656e6761
65 6d7061
6777c3a2 796f
6f6d75 67616c65
6e7975 6e6775
69 62756d6261
68616e 7761
6369 62c3ae
6f6b75 6c616e6761
79697275 6b61
6f6275 6c69
6b75 62756c61
7369 6c6f
6261 7261
626f6e65 6b65
69 6777c3a2726869726f
616d61 7a69
616c656b 73616e
616c656b73616e 64
6261 66c3b9
6279 616e61636962c3a0
6e61 6765
6275 62c3a8
73 6972616765
68616d61 7469
6d61 73
6261 7268616e75
6b656d62c3bb 6c65
62 79616e6b61
62 69727761
6a c3ae
6e79c3a2 6dc3a0
726875 6477c3ae726865
6261 68c3aa6b61
617969 7368697265
6e6e6f6e 7a697a65
7368616d62c3a2 6c697261
7368 697261
656e6461 6869726f
68656e6765 6b61
68616461 6469
67 c3b46c61
6261 6675
6f 79756d7665
6b75 6b756c75
736865 7265
79c3aa6dc3aa7261 6761
736877c3aa 6b657265
6875 67c3bb
62616e61 6ac3a0
6e 67616e6f
6f6275 6b616c69
6f6b75 62c3ae
726875 62c3a0
62616e61 6b617a
616dc3ae 6e6f
6b69 7a65
7a696275 6861
6d75 6879c3a2687961
616261 6269736861
79c3bb7368c3bb 6b61
6f6b75 726875
6e61 79c3ae7368
79 616e616c69
67 c3aa726f
6d75726861 6bc3a267
6d756369 7a61
6d62c3ae 6b6f
67617961 6775
6b61 6d6f6c65
63c3bb 6d61
6b61 64756b75
c3b4 7961
69 62616c61
6d61 68656d6265
75 7269
616e616369 79616e6b61
68c3a2 6e79697265
7a c3ae7265
79c3b4726861 6761
6c75 6d75
656e64 77c3a26c61
6777c3aa 72687765
736861 67616c756b61
6b616c65 6275
6c75 6d61
7461 7269
616e6163696d75 64c3b47361
6475 6b61
6d75 67657a69
72686162c3a2 6c697261
6769 6c
656269 67616c7567616c75
726875 6777c3aa726865
6f6c75 676572c3aa726f
6e 6e616b75
61 79756d7665
68616ec3bb 7a69
6e c3a0
7a616b61 72697961
6bc3bb 6c756c61
6d757a69 6769727761
6e796967c3ae7269 7a6f
656d 65
79696e6a69 6861
6d65 7a61
6f6d756c75 6d756e61
6a 697a
7975 6d7061
6275 6e7969
6f6d75 686572686f
6d75 6b616e61
c3a0 6275726861
7365 79697269
62616869 6d61
6e64 c3aa
79616e 73697265
72687765 6d6269
6f6d75 6e79657265
6275 68616e65
62616c69 6d776f
6369 676f6c6f
6f6277 616e67c3a0
7a61 6275
6d75 676f6e676f
77616b61 7ac3a267
62616b6f6c61 6761
616e616369 66c3a0
6cc3a2 6c69
7268c3bb 6c697269
67c3ae 72c3ae7265
62756c69 676f
616d61 76756861
6f6b75 6275
6f 6b77c3a26ec3ae6e65
6d69 72687765
62616e616369 6a697261
67c3bb 6c65
62796f 6d6269
68656e 616e
6f6277 69
6861736861 6761
6d 69726f
6261 6d616e79697265
6f6b75 79c3ae726861
736875 6d696b61
6d75 73686f6d62616e7969
63696675 6261
74c3bb 6e676f
6f6d75 6b617261
6f6c75 76c3b9
7a756e67756c75 73697265
6f6d75 6e7975
656e6761 6c6f
6d c3aa
6c7761 6d61
6b7761 62c3a0
6761 6b75
6761 62697261
6261 7368696d6261
6d75 68c3a0
77 616e69
65 6277c3a26d69
79c3bb6261 6b7761
6269 67c3bb6bc3a0
73686f 62656b61
61 70
79697368 697261
656e7969 6d626f
616b 6861
616b6861 7a6979617369
6865 7a65
7965686f7961 6b696d75
656e 7368757368616e6f
6e 79c3ae736869
6f6b6f6c61 6761
69 6bc3a2
6369 6275
67657265 7265
69 7969
69726f 6e646f
6761 62c3a0
6ac3a2 6761
656869 747961
65 6465726861
6d6f 72
7268696e6469 62757a61
63c3a2 62c3a0
c3a0 63c3ae
67657261 6761
616261 6c75
6c69 7268756d61
656269 68756d6269
656369 6b6f6e6f
61 7965
77616e 6b616e61
6f6275 687961
626168616dc3ae7269 7a69
6e74 616e
726875 6261
68c3a2 627765
6f6277c3ae6861 6d6269
6b616c65 6265
68656d75 6b697261
6f 6b617a
6275 6869726869
6877 c3aa7261
6d75 6b616e7965
6261 73c3ae6d61
6b75 79756d7661
73686f 6e69
66 6f6e69
73 c3aa7265
73c3ae 6b61
616d617268 c3a0
6b c3b46c61
61 7675
62c3a2 67697261
6c61 6d62c3bb6c61
6e7475 6d61
6b61 68657a61
6275 73c3b9
6e696f 6c65
656e7975 6e6461
676f 6d62
66c3bb 7a69
726865 6265
6261 79c3a2
6f6b75 796967c3ae72697a61
6d75 7268616e6b61
6369 6b6f6c61
6c75 6bc3bb7461
65 6c7961
65 7268756d61
6f6c7769 6d626f
6b 6972
6261 6277c3ae6e65
7475 6c69
616261 62c3ae
7761 6bc3a267
75 72697961
6e6e616b75 6e6f
6269 7961
617969 67c3ae72697a61
7a617265 7469
726875 6a697261
6d75726861 62c3a2
7368616e 646f
6d75 6bc3a27765
6d62c3bb 6c65
6d697261 6761
6f6c75 6c616e6761
61 6277c3ae7a697265
6179c3a2 6769727765
64c3b4 7365
6c75 6e656e65
6d6f 7261
6162616e 67657265
77 697265
6e74 c3b4
66 656c69
62 6972
7469 7469
726869 6e64616b776f
6f6d77c3a26e61 72686162616e61
6f 7268756d697265
6f6e61 6261
6d75 6e7969
6f 74616dc3ae7265
6c796f 6b69
6d7563c3aa7261 63c3aa7261
6277c3a2 7268c3ae7265
73656e6765 72657261
7ac3a2 62796f
68657275 6c61
6461 7269
6f 6b616e7965
616e 797761
6f6c75 68c3b9
63616e6b61 7268756d61
6c656e6765 7a61
6b61 7269
6e65 667574
6e65667574 616c69
6e6469 6769
6f6d75 6c61
6d75 7369726865
6f6b75 747761
6f7761 6d75
6b75 6b6f6c61
61 79c3a26b61
6f 686f
68c3aa 7369
6275 6c697265
6b77c3aa 6265
62c3a0 6d75
6e74 616d75
6d7761 6a697261
6e 67c3a2
62616c69 6e6461
6f 6861
6e616e61 6b75
7961 6ac3a0
6e67756c75 6d697261
6b61 6769
6c75 6b6f6c61
62757a69 627761
656269 6d616e79c3ae736f
67656e 7a69
68c3b4 67c3aa726f
6469 726869
73c3ae 6e617969
72686f 6e6461
6f6d75 6b616e61
73c3a2 72c3bb
6e61 6d6269
6261 72686572656bc3aa7261
6f6275 676f
7761 7969
72686572656b c3ae727765
676f 6265
656d70 616e6465
6d75 67616e6461
6e 7a6f
6b616e 6b61
6f6b75 7a69
62c3aa 72c3ae7265
66 c3b4
656269 676f6c6f
6f 6cc3bb6c61
68756e6775 6d756c61
6261736869 6dc3a26e61
79c3ae 7268697261
6d75 626f6e65
6261 6865
7368c3b4 6b6f
61726861 6a697261
6e6b656e67 c3aa726f
6f6275 7a696275
79697a7265 656c69
6c75 676572c3aa726f
6b75 7a696d75
6369 6e7761
6d75 6c656e6765
62 656e61
616d617a69 79616875
62756c61 67c3ae72697265
746f6269 7469
6d 656e65
616c656b73616e64 726f
616e7469 796f
6277c3a2 796f
c3a0 6261
61 73686f
6e61 6761
6d61 6c756d7761
6f 626f
686568c3aa7265 7261
6469 6d69
61726861 62c3a2
6b 6973
62616e7961 6761
6769 73687765
6275726861 677761
6e61 6c75
6d616e79 697261
6c 79c3b46e65
6e61 73687562
69 6c6f6e7a61
6f 646573697265
6e6769 6e6761
68c3b4 686f
6269 6cc3b472686f
616b6f6c61 6761
656e 736869
6f6d75 6c65
61 64c3b47361
6e6b75 68c3bb6e79697265
6e61 6c
6e6b75 6277c3ae7265
62756c61 67697261
6e61 6b617a
69 7361
6e61 6b6f
6cc3a2 6c696b61
61 747761
6e61 7a69
616e61 7969736861
6261726861 6b616369
61 73c3ae6d61
616e 7965
63 616d61
75 7369
66 6f
6d75 6c616e7a69
7268 697269
72687761 6d61
6d61 6c616e6761
61 6465726865
6b756c696b697261 6761
c3bb 6c65
7a69 62c3a0
616dc3a2 72686f
6e79 656e6761
67616e 64c3a2
62616c61 6d61
6f 6a69
c3ae 7a61
7368696d65 7969
656d69 6c617ac3b4
69 6c75
6f6d756c75 6e6775
62 79c3b46e65
74 77c3a2
656369 6e7475
6275 6b756c75
6b 69727765
656d69 7ac3aa7469
6f6d756761 7675
7ac3a2 796f
6b6f 6e646f
656369 6d616ec3a8
626f6ec3aa 7361
79c3ae 6d616e
6d616e69 6b61
6d75 67616c7567616c75
79c3ae 72687761
72687761 6c69
6e6777 c3ae7265
6861 7a61
616d61 72687765
61 7365
6e 6b696e6769
c3ae72 c3ae
7a6f 6e676f6c6f
7369 686f6e69
616e616369 6b616e7961
616d61 746162c3a2726f
6cc3ae 7a69
656e73 616e616d75
61 726869
73 c3aa
6f6d75 676f7a69
616869 6d61
616d75 6b61
616261 6261
646f6e69 7961
68616e 616e69
6f6b75 79c3ae6d61
656d70 6972697269
757a69 79616875
6c61 67616c65
616e7469796f 6b697961
6f 6dc3bb736869
7268776f 736869
69 64c3b47361
656e 6a6f6b61
616261 7ac3ae6e65
79c3aa 67c3bb6c61
686f 6e7a69
79616e 69
6e67 7765
697261 6cc3a0
63 c3b4
6d65 7269
6265 7269
6261 6c656b61
656e6761 6d697961
6c69 6e6ac3a0
6d75 676973686f
72687761 6dc3a2
6461 6d6173
64616d6173 6b6f
7761 6c656d616761
6c6f6c61 6761
617969 6d616e6761
6465 7361
73686f 6265
6261 79c3aa6dc3aa7261
6e6a c3a8
6e79 656e
7368 656e7969
6b75 6d6f73686f
61 7475
6a75 6861
6369 736967c3ae7265
61 7268616e616369
616261 6cc3a2
6e6761 6c75
6277c3ae 72697a61
6261 6a61
6d616e7969 7361
7965 67c3bb6c61
6162616e 7a69
6f6c75 6bc3bb7461
6d61 726877697269
656d 62c3ae
6865 6d6261
6f 6869
656d75 6e64
61 68616e
72686f6e64 65
736861 6d626f
68c3aa 6b7765
6f6c75 6b6f6d61
79756d7669726869 7a61
616b616c69 6e6761
6d c3aa7a61
656d 79656e6461
6e7465 6765
6269 7461676174c3ae6675
73696e67c3b46e6f 6c7761
79756e6a75 7a697a65
6dc3bb 6b6f
6f6c75 6775726875
61 6777c3a27369727765
79c3bb 6c6f
6f6c75 73686f6d796f
6c 656e676f
6261 6777c3a27369727765
6d75 6b65
62616761 7961
7268616e6b61 6369
68 69727761
6c 656e7a69
62616e6163696d75 7368757a61
6d65 6c69
726875 6d616e79697265
6769 62657961
686f6e676f 6c61
6c616e67c3a2 6cc3ae7265
6c7961 6875
6f6277c3a2 6c6167616c65
6d6f6c65 6b657261
6d616e7969 73697a65
6d7572686168c3ae7261 6761
6261 6c6f
6f6d75 676f6e676f
7975 7368c3bb6b61
616c69 6e6461
6f6275 73687567756e75
6c7961 6761
7965 7261
6162 c3ae7265
62616d75 68c3aa6b61
6562757a69 6b69726f
6c75 62616e6461
6275 7268697261
66 c3a2
6d6277c3ae7261 6761
6c616e 67697261
6f 79616e6b65
6e79756d76 65
62616d75 64c3b47361
6f 6c6f6e7a697a65
6e 79c3b4726861
6d75 6e676f
6d75 6e6a69
61 66c3a8
6761 6d61
6f 6e616c69
62 79616e
7a616275 6c6f6e69
6d62 69727765
6f726861 6777c3aa726869
6d75 6d616e79697265
6275 73c3ae6d65
656275 73c3b9
736869 6d6275
6dc3bb 6d75
7765 6c69
6e7969 7368697265
6d7961 6d62616c6f
66756b61 6d697261
627761 6d75
6d 6972616e
6675 6675
726877 616e
6c6f6c61 6b776f
6b61 6d75
73686f6e65 7261
6d 6d756c69
6f 6d616e7961
65 6777c3aa726865
616261 73686f7369
62c3a2 6b617a
656d69 7268756d6261
7268657265 6d657261
6d75 796168756469
6777 616e6b61
6b75 6b75
6277c3a2 6d7761
6369 6e696f6c65
726875 6c65
74756d62c3bb 6b697a61
7a61 677965
6b6f6d c3aa72657a61
6f6d75 6275
616e61 6a697261
726877 c3ae7265
7368616e64c3a2 7a61
6d77 c3ae7265
616d61 6765726861
6f62757a69 72686f
72687761 6ac3a0
6cc3ae 726875
79c3bb 726861
6d75 7a696d75
6261 63697269
6c77c3ae 67616e796f
6261 686f
77616b61 7ac3a26769
6e676f 6d6265
69 68656d6265
616e616369 7268656e6761
616e 6761
65 6c79
6261 66c3ae7265
62756c75 6d6261
616d 6e6f6e69
6861736869 6b616e61
6869 7a
616e6469 7369
656269 6ac3a26369
6f6275 6d6f6c656b65
6369 7a65
6275 63c3ae626f6e65
6d61 6365
6d616365 646f6e697961
616d61 687765
616261 73686574616e69
6e67 697269
6b616e 79756e7969
656d69 6e7961
616b61 74756c6f
6bc3bb6c61 6761
656279c3bb 6d61
6e74616b61 6369
7365 7275
6d77 c3aa6ec3a8
6d6f72 656e69
6369 6cc3b472686f
6d 6972
6e7368c3a2 6e6f
61726861 6b616369
69 67656e6461
62616e616369 7368757a61
6b616e69 6e61
6f 79c3a2
72686f6e64 c3aa72657a61
616e616d75 6277c3ae7261
6e79656e 79c3aa7a69
7265 62656b61
616269 736861
6b75 7969
6475 6b756c61
616c61 6d61
626f6e65 7a6f
686568c3aa7265 7265
6572 79c3b46c61
61 736865
6d 627961
61 6d616e69
726875 67656e6465
6e7961 6d77c3a26e61
7761 6c75
736861 6d61
79c3ae726861 6761
68c3a26e61 6761
61 67616c756b61
6275 67c3a26e61
62c3aa 727761
69 6c7961
6c79 616e61
6261726861 6d75
61 7268656e6765
696261 6277c3ae7261
656275 7268c3b2
6269 67616269
6e6a6f 6b61
68c3bb 6b61
736861 6675
6261 7a696275
62616e616369 6261
656d62c3ae 6b6f
6d7563c3ae 72616e757a69
62616861 72c3a26d7961
6277 616e616369
72686572656bc3aa7265 7261
6b77 697269727761
7a69 67616761
656269 7a69
6275 6cc3a0
616261 6a697261
6d75 6775
6972616e 676f
6c656e 67616e7961
6f6277c3a2 736f
6277c3a2 676f
6d75 6675
656d 697269
6e79c3b4 627761
7761 6775
616b61 676f6d6265
61 66756d626173697265
6c6f6c61 6769
6761 6477c3ae726865
6f6c7769 67616e796f
6d69 67616e69
6163c3ae 73686f7a697265
68c3a2 6269727765
6f 7268c3a2
6261 676f6d61
6f6d77c3ae 6d6f
616b c3b46c61
6275 7268756d697265
6f6c75 68c3aa726f
726861 7a61
6162697961 74617269
6b75 6c77c3ae7261
68656e6765 7265
7965 7a61
6f6d77 616e64697369
736861 66616e69
796f 7961
6e 73c3a2
6275 6d616e7965
68697a 6b6979616875
6e61 7a6172657469
6d 62616e61
6c75 62616c61
6369 6261
656e 73686f
73 697261
67616c69 6b61
6179c3a2 6bc3bb7a61
616461 6d75
6e69 6761
616c61 6d62c3bb6c61
7369 6e69
67 6972
646f 7269
6b61 64657369
616e61 7268c3b46c61
63 6972c3a26c6f
6761 6c
6e 79c3ae
69 7ac3a262796f
61 7268656e7a61
7961 6bc3bb7a61
6d61 6765726861
6f6c75 73c3b2
736875 6b65
67616c69 7a61
6d75 72686f6e7969
6b75 6869
6cc3bb 6b61
69 6b6f6c61
6b75 6277c3ae7261
61736869 6dc3a26e61
7761 6d70
7268c3b4 7a697265
6d7761 6b61
6369 6d75
6b75 79c3b4626f6861
67 616e616369
6361 73696e6761
616e616369 68756c756b61
6d75 6a697265
73c3b4 6b657265
6f6c6f 6c65
6e74 616e7a69
72 c3ae
726875 7268616e61
6d75 6a69
7268c3bb 6c65
61 79c3b473697265
68696b61 6b776f
62616e 6b616e61
616e61 62c3a8
6e 73686f
6b65 68617469
6c75 6e67657265
6e61 6d756b61
7368616e6461 62616e7961
6261 62616e6461
616e616369 79696d756b61
67656e6461 6761
7477c3ae 6b61
726875 62616e6461
6562757a69 6b61
79756d7669 6b616e61
6d75 7369
7761 79697368
7675 6c696e6469
656b75 6d6f73686f
726877c3a8 726877c3a8
6261 6b77c3a26ec3ae6e65
6b61 6c756775
6f 77c3a2
656e 66c3bb7a69
6d75 6b656e7969
6861 6a69
7275 6269
62c3aa 68c3a8
7a6f 6d6269
6a756775 6d7961
7461 7261
6e67c3bb 6bc3b9
7961 6d62696b61
6c65 6265
6275736861 67616c756b65
6861 6b6f
656d70 c3aa7265726f
677761 6dc3a2
6261 79c3b4726861
6261 6c6576697469
6d70 79c3a2
6d7079c3a2 687961
6f6e 67616e6f
61 68616e6469
6f726861 6261
6f6d75 72686567657369
6f6b75 7368696e67c3a26ec3ae6e65
6d61 7368656b61
72c3a2 6d7965
7975 6d616e
6563 6972696261
6e61 7a6f
6c65 7469
62616b61 6465726861
6465 7268c3ae7265
62616e 79616e6b6f6c61
6675 6e646f
6277c3b4 7268657265
796f7261 6d75
73c3ae 6d7761
627761 6dc3a2
616261 6b616e61
7365 7a617269
626172 6e616261
656269 736877c3aa6b7761
67756c61 6761
6d61 73c3ae6d61
616d75 79c3ae72696b61
65 62756c616d626f
7475 7a69
616e61 73687562
73686f6e65 7a6f
6f6275 7a696e6461
66c3bb6e69 6b6f
70 75
6277c3ae 72616e61
62616e61 6465726861
6d61 73c3b4
6b65 6d6265
74616d61 7269
7a69 6b61
6b61 6465726861
6f 626f6e61
6369 6b77c3b46e656e65
6c776f 6ec3aa6ec3a8
61 7368616d62c3a26c61
6261 7368696e67616e79616e7961
61 74616dc3ae7265
61 7ac3bb6b61
6f726861 62c3a26761
6d62c3bb 6c697265
6f 7268c3ae6e7961
656e736869 6e6461
6d77c3a2 6e616e79657265
6c65 7265
6d6261 7261
616dc3a2 66c3a0
6f6c75 6dc3a8
61 79c3aa
726865 6d756b61
6275 6b6f6c61
6261 7268c3b2
63c3bb 73686f
79756d7661 6769
7368 616e61
62c3ae 6b61
6265 6865
6d61 7368616d69
6f6d75 7ac3a262c3ae6275
6e69 6c69
77 616e616369
6769 7a61
6d75 67656e64
6275 726875
7368 c3aa
6d75 67656e6465
72687761 6369
6f6d757369 6e676f
6562c3ae 726861
6e61 7969736869
6c75 6477c3ae726865
686f 6e6461
62c3aa7261 6d776f
6e6475 6c69
67617368c3a26e69 7a65
6b 6972697265
6269 736869
6d7761 626f6e61
6d69 6e6f
7961 796f
62616e61 7969
6dc3ae 7a61
696e 6e69
6269 6e
726865 626f
7a69 62c3a8
6b617a69 79c3b4726861
79756dc3a2 6ec3ae6e65
77616e6b61 68617368
c3b4 6c6f
6269 7268616e6b61
6b75 6e
6d62 c3ae7265
6d 6277c3ae
6879c3a2 7369
6e61 62616c61
7477c3ae 726f
616e61 66c3ae7265
6172 6e6f6e69
6d75 74756c61
6861 6275
6f6d75 67657a69
66756c75 6d756b61
6d75 73697265
7368 c3ae6e65
6c69 7a65
6e61 6c6f6c61
61 6c656b61
63756e6775 6c61
656d75 7a69726875
67616c75 6b697261
6d756c61 6d75
6675 6cc3bb
79756e6a75 6c65
6275 72686567657369
76 616e676f
61 646f6e69
63c3ae 66756c696b61
67616e c3ae7261
7965 667574
7965667574 c3a8
6562 6972756d6275
61 6a616761
6f77 616e
79c3b4 6ec3a0
656d69 7ac3ae
6c75 6c656d61
7275 6b69
6275 6b757a65
73 616e7a69
6d61 6b616265
6d616b616265 796f
6d657265 7261
697265 6865
6c69 6b6f6c61
68c3ae7261 6761
6168697261 6b776f
726875 6ac3a8
6f6275 726875
6277c3ae 6b61
616369 62c3a0
7261 6d69
6c75 6869
686f 7269
656d70 656e65
6ac3a2 6e61
6b65 6d62c3bb6c61
6179c3bb 7361
c3ae 6261
6e6b75 68c3ae7265
726875 7268616e6b61
656d77 c3ae726875
656e6675 6c61
67756c69 7a61
79c3a26761 6c7761
656d69 7368c3ae626f
656b75 6cc3ae
6f 79c3ae7368
7761 6465726861
7761 6b617a
6f6275 6461
6275 67616c65
6e6761 6c6f
73686f6b6f 6cc3ae7265
6e61 7969736861
6e61 6c6f
63697269 6d776f
6b69 6e6a61
64 697261
7a69 6e616c69
6e 73686f686f
6d75726861 6c69
62616e 79
6261 79c3bb73
676572 73686f6e69
6b69 6e69
6d776f 796f
6b657265 7a61
79c3bb6261 6b697265
6d75 68c3bb726861
6e7975 6d7661
7268 77c3a2626f
79c3a2 7361
6d75 67656e6469
7361 6769
7268c3ae 6e7965
7761 6d6d75
6d6261 6b61
6bc3bb 7a697a65
6d756c75 6e6775
67 6972697a61
616b61 73697961
69 6b6f726f
79c3a2 73697265
76 616e
6e75 6e69
6b697261 6b776f
616dc3a2 6a697261
6d7761 6b617a
6e 73
62616e61 6bc3a2
62616b75 7a61
6775 6c7761
6f6b75 7268616c69
6e67 c3bb6c61
6c61 68
6261 68c3a2627761
e280 98
6c69 6e6461
6775 6477c3ae726865
6865 72
6b61 6d61
6d69 6869676f
7961 6265
68c3b4 6c6f
62616269 736861
6275 6869
6d65 727761
6f6275726861 62c3aa736861
6f726861 6d616e79697269
6369 6861
61 6dc3bb6b6f
6168 697269
6475 67756e6475
626f6e656b65 727761
68 77c3ae7265
6bc3b4 6d657261
62 c3aa7275
6f6277c3ae 72686f6e7a69
68 77c3aa
656e 6bc3bb7461
6d65 64697961
6275 6d75
616e c3a2
736861 67616c69
6261 706167616e69
61 7a697961
726875 6d6d75
79616e6469 6bc3ae7265
63 697279616e7969
6f726875 6e79756e7969
6c69 7268616c69
6269 736877c3aa6b7761
6761 6369
6c61 7a61
616dc3a2 6275726861
61 67616c69
656e 75
656d75 676f6e676f
7969736869 62c3a0
65 6477c3ae726865
6761 6c7761
6563 69726f6e646f
6f 6e74
6e616b75 68c3a0
6275 7a65
62c3bb 6269
6769 7368697265
62616c75 7a69
69 67657261
6e61 6a
69 626f6e656b616e61
6b697261 6d776f
6f6b75 62c3aa7261
6277 697a697265
7268c3ae 7a65
6f6c75 62657265
6d756c75 7a69
6261 68697261
6562 79c3a26765
73687562c3bb 6b61
62c3aa7265 7261
616e616369 7ac3bb6b61
616869 7a697265
6777 69
6d75 7969736869
61 7368c3bb62c3bb7a61
6e6775 6c6f
6275 6e7961
6168 c3ae7265
6e 67657261
6d70 c3bb
7961 6d62616c65
61 6bc3a26e69
6f 6cc3bb
6261 7675
6e7475 6d697265
69736861 7ac3a26c61
6f6d75 7368616e6769
7a 616e
c3aa 72c3ae7265
726865 67616e7965
6d657261 7269
6865 73
61 6777c3a2726861
616e616369 73687562697261
6e6465 726861
62c3b4 6c6f
6261 6c656b
6261726861 79756d7661677961
7965 6765
68c3bb 7361
7461 6d69
6167616e 7a65
6475 6475
7461 6b
6475 64756d61
6277c3b4 6a69
6f6275 686f6c6f
616e616369 79756d7661
6e6ec3a26861 6d77c3a2626f
6865 7a697265
796f 6e676f
67 c3b46e656e65
7475 6c65
6d61 726877c3aa726877c3a8
6277c3a2 62c3a0
656e7369 726861
6d61 7461676174c3ae6675
6261 6c656b69
627761 7268756d616761
6777c3ae 6b65
6d75 68616dc3ae72697a69
6d6f 6761
73 c3aa7261
617961 6d62c3ae726865
616e61 6b617a69
68 79c3a26765
63697261 67c3a26e65
7a69 6261677761
6c65 62c3a8
6d61 6d7675
6261 79696d616e7a697265
62617368c3bb62c3bb 7a616e7961
6cc3ae 727765
6b697269 7a65
6f726861 64657268616761
6b7761 7268756d697265
6e6b75 726865676573697265
6b65 72c3ae7265
6d75 796967c3ae72697a61
616d61 7361
6b616275 6c69727761
6261 6465726865
656e74 656d75
626172686162c3a2 6c61
6d757a69 726875
6b6172 6d656c69
7368696e67c3a2 6ec3ae6e69
69726f 686f
6d7761 79756d76c3ae726865
6d70 c3aa6b61
72686f 6c61
6275726861 68757361
6d7765 6dc3aa7a69
73657275 7961
7268616e67c3a2 7a61
677765 6c69
7a 656e7a65
6d75 6b75
6b757a69 627761
67616e 79c3ae
6d7769 7368696e676f
6261 796967c3ae72697a61
6261 72756b69
6369 7461676174c3ae6675
31 37
70746f 6c656d65
70746f6c656d65 796f
6f6275 6b656e6765
6f6d75 6877696e6a61
7965 6b75646573697265
6261 666172697a657969
65 7261
6d756275 726865
656d70 6f
61 6c656b65
61 6c6f6c65
6775 6e616c69
6875 6d65
6d75 6d616e7961
6261 6bc3a0
79c3ae 73697265
726869 6e6761
69 6c616d61
6e61 7268756d61
656369 686f6e7a69
62617969736861 6761
6e61 6a6972616761
6562 697279616e7969
746172 73697369
61 7375
68697265 6b776f
61 72686f6e7961
6ec3aa 6765
6ec3aa6765 6275
6562 79616c69
6d75 79756d7661
6c69 7961
6e6b61 6c69
6563 c3ae7261
62756e67756c75 6b61
6e67 616e616369
6d75 67c3ae
6c75 736861
6e6b75 646573697265
6c616e 67c3bb6c61
62c3ae 736865
6f 7268616e67
68616c69 6769
7a69 676f
61 67656e6465
6e6761 6d697961
6261 6b756c696b697261
626f6e65 7261
61 6475
6162c3a26e61 72686162616e61
616261 64c3b47361
657269 6e6469
6d61 76756861
6b75 6e7969
656e676f 6d61
656269 68616d6261
79c3b4 7268616e61
6c69 6477c3ae726865
61 79616d62616c61
6a 616e6469
6b656e 6775
616261 7268696d616e7961
77 c3aa7261
6b75 726875
6369 6777c3aa726865
64 c3ae
6d61 6b697269
616c61 67616e7961677961
7965 62757369
6261726861 6b75
65 6c657961
63c3ae 73686f6d7961
6f6d75 6b616261
6162616c75 6e6775
6775 736861
616261 736869
6261 6b6f
6e67 c3b4
66 697261
6279c3a2 7369
7961 6b61
6e61 6b617a69
63c3bb 6bc3a0
6d70 6f676f
6b6f6cc3aa 7365
6d76 616e6765
736869 6dc3a2
6f6b75 6761
79c3bb 7369
6875 6e6761
62c3a2 6b617a69
656d70 79c3bb6c6f
736972 7769
616e6b61 626f6e61
6861 62756b61
6d61 6879c3a2687961
69 686172c3a26d7961
6b616e 6761
656269 79c3aa72656bc3ae7265
6369 7268756d6972616765
6f6b75 6e
7975 6c61
67616e7969 7a65
6162616cc3a2 6cc3ae7a69
6c69 6b756c75
6f 7269
616261 7477c3ae
6861 6b616e61
656e 646572686f
7761 6b616e61
7761 6277c3ae6e65
6f 6c79c3a26c61
6675 6d65
6dc3a2 6d69
7268616e 6761
6ec3a2 6a697261
6b75 7268656e67
6dc3bb 73697265
6d61 616b61
6865 6b657261
616261 72686567657369
79616265 736869
6d69 7a65
6d75 66696c697374696e69
6d7568616e 7969
6e 79616e6b6f6c61
6275 6c757368697265
6bc3b4 6d65
6f6d77c3a26d69 6b617a69
63c3a2 6261
6f6b75 72686567656b61
796f 7065
7268616e 7961
7261 6777656c69
6e61 646573697265
616261 726f6d61
77c3a2 6369
656e 64696d69
616261 676f6d61
6461 6d617369
70 c3ae6d61
627761 79697261
6c69 6d776f
6c75 646572687761
66 697265
6275 73687567756e75
6b617969 6e69
7a69 6861
6dc3a2 6e7961
67616e 79697265
6c69 6369
6f6b75 73c3a272c3bb6c61
6369 7369
c3a0 6a697261
656e 6b696e6769
616e616369 79c3a26bc3bb7a61
6769 73687761
656e 6b77c3aa72686f
6f6d70 c3a8
617969 6d69
6c75 68616e6465
75 6c61
6e6b75 73656e67c3ae7265
72686567616e7969 7a61
79c3aa7265 73697265
7a69 6761
7465 6765
626572 7368656261
61 68c3aa6b61
656369 68616e676f
6277 616e
69 6c616e6761
61 6769736861
6e64 7761
7761 6869
72687761 6277c3ae6e65
7369 6d61
73686f62c3b4 7a65
68c3b4 62657261
6d75 6b6f6e6477c3a8
6775 63c3ae
616369 6477c3ae726865
6e6a69 6e6a61
696d75 6277c3ae7261
61 66c3bb
6775 7a697a65
67656e 7a697265
6361 7ac3ae
63617ac3ae 6e6461
6c61 6d69
656369 6cc3b472686f
6b616c69 68697261
686f 676f6c61
7a69 6477c3ae726865
7ac3a2 6e7761
7761 64657268616761
7a61 6d61
6d6972616e 67757361
6e61 6b776f
61626173686f 6e6761
6b656e67 c3aa7a61
6261 67656e6465
67616c75 73697265
6d75726861 6d616e79697269
7969 6e616d75
726875 6e616c69
73c3ae 627765
616e 7475
6d61 6c
6369 6b7769
7a69 6b6f6c61
6f6d77 616e7961
79c3a2 62756c61
6d75 7ac3a262c3ae6275
6275 63697265
616e616369 79c3ae6d61
6477c3ae 726869
6c7761 6ac3a0
656c657961 7a617269
697368 656e6761
6275 7a61677961
68616d61 67616c65
79656e 6465
6f6d75 6cc3a0
6469726869 6d616e61
66 c3a26761
c3a0 6e61
6279c3bb 6269
676f6d62 c3b46c61
7965 6b69
c3a0 6a697a697265
79697368 c3ae
6f6d75 6e7765
6d69 6b65
726875 7268616c69
68616d61 67c3ae7265
6f6b75 6b617a
6f6b75 72686572656bc3aa7261
67657265 727761
6d756c65 6265
6b77 696e7975
616861 7461676174c3ae6675
6275 7268656e6761
79c3aa6d c3aa72
6ec3a2 6d6d75
6261726861 6b61
6265 72c3bb
6f6b75 6c61
686972696769 726865
6d75 736f6c65
77616e 74756d616761
6c75 76c3b9
616e7961 6761
616e616369 68697261
6269 72686f6e646f
72 6e
6b6173 75
6d69 7368c3bb6769
6f6b75 68c3a0
6d616e 656e65
6c75 7368696b61
656d70 c3ae
6d 6277c3ae7a697265
6261 73686574616e69
6d75 7268656765
6f726861 6277c3ae6e69
7761 646573697265
736f 7269
6275 676f6d61
6261 66696c697374696e69
62c3ae 6e65
6a75 6d61
6777 c3ae7261
6869 73756e67756e75
79c3ae 72756b61
6269 6477c3ae726865
6261 62756c61
6d77 656e6765
7261 6661
6f6275 63c3ae72616e757a69
626163c3ae 6b75626167697261
6d61 736861
6e65 62617469
6163c3ae 68656e67656b61
6e61626f 7469
68756c69 6b65
73c3a2 7268616c61
6869 73616e7a69
6d616e 64696b6f
6c697369 79617369
62616b69 64657369
626f 6865
6277 c3aa
62617469 7a61
72 c3aa7261
61 72686f
656d69 7368c3bb6769
6b75 6d616e7961
616e61 6a697a697265
7368c3a2 6265
7a69 6875
65726861 6369
6e61 68697261
616261 6d6f72697469
6261 79c3bb626173697265
6e6b61 7a69
6e61 68c3a0
6e616b75 6a697261
6f 7268656e6765
627761 6d61
6d61 627572687761
6e6465 726865
6c61 67616e7961677961
616b61 62616e6461
7969 6e67696e6761
6d75 7268656e6765
6c65 7268657261
6d69 736f6c65
6d75 7368656e7969
73656e6765 72657265
69 747761
6e61 6861
c3b4 6b61
616e61 646573697265
6f6b75 67656e6461
72686f6e7969 7a65
61 6bc3a0
65 6d6168616e6761
74c3a2 6b65
656e 7368616e6761
67c3a2 7a6f
616e61 6ac3a0
7361 6d776f
6e61 636f
74616d61 7261
67c3ae 727765
61726861 6777c3aa726869
616261 6b6f7a69
616b61 62656865
6f6b75 7969736861
6f 72686f
6d77616e 6469
6179c3ae 736865
61726861 6261
6b77 616e6b616e61
69 68c3a2627761
67c3a2 67776f
6d756e61 6d75
6261 6c7761
616e6163696d75 68c3a0
6c75 73686f6d796f
63 616e
6c75 6c75
6e 6e75
6bc3bb 7a697265
6e6461 6d756b61
677761 6d61
656369 67756d61
6275 6861
6e6475 6b756c61
6369 6a69726f
67616e c3ae7a61
6f6b75 6c796f
73 616e7961
6277 c3a8
62616e 7461
6c69 7461676174c3ae6675
6e61 6bc3a267
6869 7365
6c6f676f 7268657261
67616c75 6c697265
6dc3ae 6e6f
6b61 66656e6465
616d61 726877c3a8726877c3a8
656d7061 686f
6777c3a2 7361
6d69 676f7a69
76756e67756e7975 6c61
79c3bb6261 7369727765
6275 7368616e6a61
6f6b75 73696e67c3b46e6f6c7761
61 62756c61
6f6b75736875 6bc3bb6c7761
68c3a2 6e7761
6d6275 6c697261
6d616e75 6b61
6b616e61 6c69
6e 7a65
6e6765 736f
6d756b61 6a697261
61 6a61
6269 7268756d697265
6369726861 676f
6f6275 6c61
686568c3aa7265 727761
68696e6461 6d756b61
61 6b69
626162616c697261 6761
6c7761 6d75
6e64 c3ae72c3ae
6f 79756d7661
61 79c3aa72656b616e61
6163c3ae 73686f6761
6f6275 7368616e6a61
676f 73697265
6f 6b656e67c3aa7265
6d61 68616e7961
6775 726865
79c3ae 6261
6277c3ae 727761
73c3a2 6769
6c75 6b6f6d61
616d61 626162616c65
736861 67616c756b65
62696e61 79616e64697369727765
6f6b75 6869
6261 62c3aa7261
6b77c3a2 6e616e65
6f 79756d76c3ae7268697a65
6f 79697368697265
7969736869 6769
617369 6761
7a756e6775 7a756e6775
6275 66756e6461
6d75 72686567657369
6c75 6d6261
656e 7361
6e6f 656d69
7275 7469
62776f 7a69
6973 c3a2
6566 657a69
62617961 6d62c3ae726865
616269736861 7969
616b75 7a61
62656e61 79616875
62616e7961 6b756c77c3ae7261
6275 7368697275
6b616265 6865
6261726861 6a697261
7969 6d6261
656369 7268c3ae6e7969726f
656e 7a656e7a65
6269 79616e64696b65
74 616e7961
736865 6d61
656d69 62697269
6e6965 736869
6c7961 6dc3a2
79616e6469 6b697265
616261 6877696e6a61
6275 6d6f6c656b65
7368696e 67697261
6c6f6e 676f6c6f
616dc3ae 7275
616d61 67656e65
616e616261 6277c3ae7261
616b61 6769
6269 6e656e65
65 7469
6e 6e616d75
6f726875 76756861
6e 6b6f
72 c3ae727765
656e67c3bb 7a61
6777 c3b46e65
61 7368696d6261
61 6c6f6c61
6261 6c616c61
616d616c69 6261
6f6d75 66c3bb6e696b6f
63 c3b462c3a0
6261 62656c69
676f 6d6f7261
677761 6d776f
6c7961 62c3a0
726875 626f6e61
6d6f 676f
6e7461 6c6f6e7a61
616d61 68c3aa6d61
616d75 6a697261
6d77c3a26e61 72686162616e61
6f6d75 73686f7369
616e616369 6275726861
6e616d75 68c3a0
6d75 6465726861
61 6b616e696e61
617969 6d616e
77616e 616e
6d75736869 6e6a61
61 7268756d697a61
6b75726861 6b77c3a26ec3ae6e69
6275 68616dc3ae72697a69
616275 7268697261
6261726875 7a61
6b75 7268c3ae6e7961
64756261 64756261
c3a0 62c3a0
676f 6e646f
796f 7469
6761 68696b61
61 73c3b46b657261
616b61 64616c69
62616b61 6d75
726875 6b6f6c616761
616d 616e61
6f7761 6b75
656d77c3a2 6e69
67616c75 6c65
6e7975 6d7669
6b6f6c657261 6761
62616761 6c756b61
6d77616e 6b616e61
6c75 6b656e677761
79756d76 616e7965
c3ae 7269
626f 7261
726877 616e616369
656269 6cc3b472686f
6b75 79c3ae726861
6f6b756d75 79c3ae726861
6563 697279616e7969
61726861 63697269
6b61 6d776f
62757a69 7a65
616dc3a2 627572687761
6c6f6e 67c3b4
68756c69 67616e61
6e 67656e64
67616e64c3a2 7a61
686f 7265
61726861 6b75
6d6d75 6277c3ae7261
677761 62c3a0
c3aa7265 6b616e65
67c3bb 6b61
61 6bc3a27765
6f627769 6dc3a26e61
6e 79616e
6e64 77c3a26c61
7969 6775726861
79696775 726865
736875 7a697a65
67656e6465 7265
6261 6cc3ae
6f 7268776f
616d c3b47961
6b77 c3a8
6369 726869
6d62c3a2 677761
72686572656b c3aa727761
6e74c3b4 7268c3b2
6f726875 6d6f6c65
6d77c3ae 6b7562616769727761
6269 6b77c3a26ec3ae6e65
616261 6c656e6761
7369 627765
6f 68c3a8
6f 6875
6869 6dc3a26e61
6f 6b616e61
6f6b75 79c3aa6dc3aa7261
6d75 73686f
6465 73697269
6c 79616e6b61
7369 67697261
6f6b75 6c616d61
62616e61 7969736861
c3a2 62c3a0
6f6d75 6a69
61 62756c69
79c3aa7265 6b657265
6f 67c3bb6c61
6e 66c3ae
6d756e61 6b617a69
6d69 68c3bb726861
6c69 6879c3a2687961
77616e6b61 6465726861
6d697269 6d6f
6261 6a616761
6b617375 6e67756e75
6179c3a2 6b697261
6761 646573697265
6c69 62c3ae
6b69 6d69
736875 62c3ae
67657265 7a65
73686f6c6f676f 7361
6563 697269
6e61 7368756269
6269 73697265
6d 62657265
7268 c3aa7265
c3a2 726861
7268c3ae 7361
77c3aa 736869
6bc3bb 6c697261
6e7461 67656e677761
6f 62c3b4
6261 79756d76c3ae726865
67c3bb 7a65
6c61 6b69736869
6c69 73697265
6e7a69 62757a696275
6168c3a2 627761
6f6c69 6769
616261 676f
726875 6b75
616261 6369
79756d76c3ae 6b616e61
6f6b75 6c65
6e79 77c3a26e61
6b75 6b757a61
6d77c3ae 6e61
6f6d75 6c616e7a69
696b75 6e6775
61646f6e69 79617369
79657a61 62656c69
6e 7368c3b46b6f
617969 736865
73 656e61
7268c3bb6c697269 7a65
6f 73c3ae6d61
6f 6b7761
6f6d75 72686f6e64c3aa726f
657a 7261
62617969 736865
6e616e616369 79756d7661
627961 6dc3a2
697a69 6e6761
31 32
616261 676572656b69
747269 666f6e69
6f6e69 79617369
6b75726865 627761
6c 79616e7961
656e7461 67656e677761
656d69 68657261
69 796967c3ae72697a61
616b616261 6475
697a61 7961
6972 c3aa7265
6d616e69 6b65
7069 7961
61 79c3b4726865
6b77 c3ae7261
61 6d657a61
63697265 6d7761
7a 6972616765
61 62656c69
6d696b61 6c61
62617268616e 67697261
61 6b656e67c3aa7261
6b75 747761
656e7975 6e7969
62616e61 6761
6f 66
79c3b4 6365
6e6a69 6b756c75
6275 73c3a2
6261 79c3a26b697261
697269 76617969
7265 66
7368 656d65
616e61 6c61
616e6b61 6369
7361 67
6f 6c616e6765
6261 7268756d697265
6861 6b61
72 c3a0
6d75 68616e6461
6c75 6b75
69 6d616e7961
626173686f 7369
72 c3ae7a65
6d756bc3a2 6e6965
6761 6d75
6f 79c3aa6dc3aa7265
6174 616d616c61
66756d6261 726861
616261726875 6e7a69
79616d6269 7361
6269 6b75
616e61 6477c3ae726865
6e 697265
6c6f6e 7a697a69
62616d75 6269736861
65 6661
61 6b756c696b697261
61 79c3b4626f6861
6b75 6c
6e616b75 6277c3ae7261
6e6965 6b69
6f6b7563c3ae 68c3b46c61
697361 6b617269
6277 656e6765
656269 62616e6465
79c3ae 736865
68c3aa 6b616761
61726861 6c6f6e7a61677961
656369 7368756e6775
6369 7368c3bb6c69
7961 7969736861
69 7268656e6761
6e7969 6e6a696e6ac3a0
62616e61 6269
7369 67697265
6e616e61 6d75
6f 6c77c3ae
62616869 7a697265
6d77c3ae 7369
79696d616e 6765
69 67656e64
6e6ec3a26861 6d77696e7975
69 7368616d69
62616e 6761
62616275 6d6261
7368c3bb 726865
62 6972756d6275
6f6b75 6b6f6c61
6261 7268656e6765
616d61 6b75
726875 6c7961
6c656b c3aa72657261
6a6f 6e6a61
69 79c3ae6d61
67616e 6761
62c3a2 796f
616261 79c3bb62616b61
6d75 6e79
69 6c77c3ae7361
62c3bb 6b61
62616e61 6c75
6d77c3a2 62c3a0
616261 63c3ae72616e757a69
68696e6475 6c65
79616e6469 73697265
6b c3aa7275
7769 6e6a
6f6b75 6775
6261 6c656e6761
656e7369 6b6f
c3bb 6e756e75
7368c3ae 677761
61 7368616d62c3a27a61
79c3aa6dc3aa7265 7261
6261 6d6261
6f6d75 67616e6461
616e61 6775
6277 616e67c3a0
6275 7461676174c3ae6675
6a 697269
7961 6a65
6d75 6b6f
65 7268616e61
6b65 627761
6e67c3a2 6ec3ae6e65
69 6d616e79c3ae7361
6f6b75 67656e64
726865 62616e61
69 6b6f
6869 6e64
6c6f 676f726861
6f6b75 73686167616c756b61
6761 7268616e6b61
62 79c3b4
69 6475
6d75726861 63c3ae
7a69 646f
6d69 7ac3a262c3ae6275
6261 68616e
617365 7269
74 616e61
6261 74756c61
6cc3aa 62657261
7a69 6d61
62756c61 677761
6d 656d776f
61 79c3bb62616b616761
626f6e65 6bc3ae6e65
6f726875 72686f6e646f
79c3bb 6b61
6d c3aa7265
7268616e 6461
6261 79616e6b61
617261 6261
6f7268616e 6769
79756d76c3ae 7361
6c7961 7268656e6761
616b61 6465726861
6f 6c616e6761
6369726861676f 6d6261
6d61 687765
62616b61 6c69
61 6777c3ae7368c3ae7265
6b61 62c3ae
6f6d75 6269736861
6d69 68616e6461
6375 6b75
6f726861 6a697261
6f6d75 726865676f
6b75 6b617a69
6b75 79616e64696b65
7261 6d6f7469
72687761 63c3ae
6261 6c77c3ae7361
7a6f6e676f6c6f 73697265
6e67 c3aa6475
6f6b75 6c77c3ae7261
656e6475 6c756d61
6d616e 6f
65 77616e69
7268c3bb 7a61
70 616d756b61
6265 6761
6d75 73656e6765726f
61 6b69736869
7265 7a61
6b75726861 6d61
62617a69 6769727761
656d69 68c3bb726861
6dc3ae 73697a65
616261 63c3ae
64c3aa6b657265 7261
6f6275 6e6a69
6e7961 627567756d61
796f7261 6d69
6261 6c616e7a69
6bc3b4 6e656e65
73656e61 6b657269
73656e616b657269 6275
6f6d75 7268616e7a69
617a61 6669
6261 73c3b46d65727761
616e6469 6b6f
7961 736f6e69
72687761 6d6d75
736875 6dc3bb
6761 6dc3a2
6b75 7268c3a2
616275 6c65
72c3bb 6cc3a8
6f6d756275 6d6269
68616e c3a26e69
62616c 7461
62616c7461 7a617269
736875 67756c61
69 7368616b61
7961 6b75
7268 69727761
73686f 62c3b46c61
6869 6d65
6c c3ae6e6f
67616c69 6e6461726875
6869 67756d61
6761 686973697265
6761 796f
61 67657a61
6b657265 7261
656d626f 686f
6d70 697a697265
6269 6d75
6269 67756d61
7969 6e616d756c61
6d696e69 6b61
6b697269 7961
62616d75 6777c3a2726861
7361 7269
61 79c3aa6dc3aa7261
6269 676f6c6f
6f6b75 6275726861
6d75 6b77c3a26ec3ae6e65
736869 736861
77616e61 6d75
6369 6c75
6e646f 6c65
6179c3bb 7368c3bb6c61
6d75726861 62616e61
736861 6b756cc3bb7a61
61 7368756261
6777 697368
6369 68c3b4686f
6d6d75 68c3bb6e79697265
6761 7368697265
616d61 68656d6265
6d75 6e616e
64c3b4 6d657261
6e65 7261
61 66756b616d61
7461 6d62617261
69 6e797761
74 7769
616e61 66c3a8
6869 6e6469
6369 7a6f6d626f
616c61 6b61
6d69 6e6a696e6ac3a0
62696369 6769
6d6265 7261
6f 6c7965
72686f 6761
6c79c3a2 676f
6168c3a2 6761
6775 6e6f
6e61 6c776f
616d616e69 6e61
6369 67616d6261
7375 6b6f
73756b6f 7469
6775 6d756c61
62616e616369 7268656e6761
62617268616e6b61 6369
656369 68656265
6d75 6465726865
6b75 7268656e6765
6d75 7368616e6769
616c61 68697261
62c3aa 6865
67c3bb 6c697261
6d75 7268c3b46c65
68c3aa 6b657265
6f6275 6e7961
79697368 697269
6761 62c3a8
6d61 736875
616b75 6a697261
616261 7268616c69
79c3b46c6f6c6f 6b61
6e61 68697a697265
61 6bc3a26765
c3a0 726861
616d61 68616e7961
656369 68c3b467c3aa726f
7477c3a2 6761
6b75 7a696275
72687761 6a697a697265
6e676f 6d61
656d696e7961 676f
6261 7268c3a06c69
616e616369 79c3bb62616b61
656e6761 72756b61
6f 6ac3a0
79c3aa 6765
617268616e6b61 6369
6b c3aa7265
656369 62757a69
7368616e6461 62616e
6275 72686572656d61
6d75 6869726f
6e64c3b4 7a6f
6f6275 6e6469
616d61 6261
74756d62c3bb 6b697a6f
65 687961
6f 7a696275
6f6775 6e6469
6f726875 6c756775
6a 656d776f
6261 79c3b4626f6861
62c3a0 6bc3a26769
62c3a0 6777c3aa726865
6275 6875
616861 6d616761
6f6b75 68c3bb6e61
69 68c3a26e61
657269 67756d61
6f6b75 76756761
616e616369 6269
6b75 6875
6cc3aa 7268657265
6f 67c3b46c61
6d7761 6dc3a2
6b77 c3ae7265
6d756c69 626f
6e7969 6dc3a26e61
6b75 6c616e6761
6d757a69 676f
6675 6d7965
616261 72686f
656369 62616e6465
7268c3ae6e7961 6761
7969 67756c61
616261 7a69
72 6e61
726875 72686f6e646f
68c3b4 7a69
6261 7268696d616e7961
616d 6277c3ae7a697265
6261 62616761
6d7761 6369
6e 7a696e6461
7761 6c61
7268616e 67756c6f
6f6d75 6869
6f7961 6d62c3ae726865
6e61 6775
656d69 6e7765
6b75 7368696e67c3a26ec3ae6e65
656d70c3ae 6d626f
7761 6a69
6d69 7469
61 7268c3aa7261
726865 627761
6275 6269
79756d616e 79616e7961
6e61 6d6972697a61
6461 6761
7368c3bb62c3bb 7a616e7961
7369 73657261
6bc3a2 6261
616e616369 72686f6e64c3aa7261
79616e6b 6972c3ae7265
6f6d75 67616e69
6777 616e
6f 6265
6d616e79c3ae 73697a65
6d7761 79697368
6d69 726865676f
626f 6e6a6f
7961 6b617ac3a267
6d75 6277c3ae7265
6261 6c79c3a26c61
6e73 616e616d75
6c69 7268616e6b61
656d69 67616e69
7369 6dc3ae7361
6b69 79617369
68617a61 68656c69
6f 6d61
617a61 72697961
657469 796f
657469796f 70697961
6761 79c3aa72656bc3ae7265
6d62c3bb 7a69
6d77c3ae 72686f6e7a69
6675 6c61
656e 73656e6765726f
72c3a2 6275
7375 7a61
6765 6461
6265 74756c69
6261 7268616e67c3a26c61
617375 65
61737565 72757369
7a61 6dc3a2
6d656e65 6c61
6d656e656c61 7369
6e74c3a2 6b776f
6b77c3aa 627761
797765 7369
6261726869 736869
6d62 c3aa6475
616b61 6c696d69
6261 68616e7961
616261 6bc3a267
6f6d75 7361
6f6d757361 6c616261
726875 6a697265
6d6275 6c65
76 616e6765
6d6d75 68c3ae7265
79c3b46c6f6c6f 6b65
6d7572686162c3a2 7a69
61 7268656e67616761
6b61 6661
6e616d75 6277c3ae7261
6ec3bb 6e75
6d61 68616c69
616b75 6c61
6761 6ac3a0
6869 6e6ac3a0
73617261 7969
63 616e616369
61 64
6b61 7369
61 66c3ae7261
6861 72616e69
616261 72686162616e61
6d69 6c
7969 7369
726875726861 6369
6369 7268616c69
616d61 6d75
616261 736967616c616761
726566 6179696d69
7461 79696d69
6d6f6e69 7469
68616761 7269
6e 73687562
7761 62c3a0
616e61 6275
6861 62c3a8
63 6972c3ae
616e61 7961
62616e61 6a697261
6d75 7477c3ae
726875 6e696b61
6b75 7268616e6b61
79756d76c3ae 7268c3ae7a65
73686f 6765
616b61 62696e6469
6c6f6e 67657a65
6d61 67756d61
7261 6d697961
69 646572687761
616e61 6277c3ae6e65
616d75 68c3aa6b61
62616d75 68c3a0
746f 6ec3a8
6261 6c7965
77616e61 6c69
7a 69726f
6261726861 64657268616761
6b61 7268616c69
7268616e 6b616e61
6d75 6777c3a2726861
6d75 7268c3a2
6cc3b4 726861
6369 6b6f6e6f
79616e6461 67616c65
67c3ae72c3ae7265 6b776f
6163c3ae 6a697261
6d756761 7675
6f6c75 6b656e677761
6261 7975
6261 79c3bb7361
6269 73756e67756e75
616e 797765
6c657261 6761
6e c3ae7265
69 6c61
726865 7a697265
6e67 697265
7268616e 64c3bb6c61
6d69 7a696275
62616c69 62757a61
686f7265 6275
6c75 62756c61
6e6b75 6277c3ae7a697265
67 616e65
616277c3ae7261 6761
6261726875 6d69727765
656e 7a61
74 616e
6b756e6775 6c6f
656d69 68756c69
656e7a69 6765
656c69 67756d61
656e7975 6e6775
64c3bb 6c696b65
6b75 68c3aa6b61
6f6277c3ae6861 6d6265
736861 68756c69
c3a0 6b75
62c3ae 726861
79c3b4626f 6865
6d75726861 6b616369
616b61 76756c696e6469
68 656e61
6b756e6775 7a6f
7268c3b4 6c6f
6d616e 65
6d61 73686f6e657a6f
6b75 62c3a8
6d75 79c3b4726865
6f726861 686162697269
656d69 74c3bb6e676f
65 6c75
6b697265 6b776f
68616d69 6b697a6f
6c75 6b65
6a69 6d6269
6469 6b75
73696e67c3b46e6f 6c65
6f6b75 79c3ae
6f6d75 6b656e7a69
6f6b75 63697a61
6b656e67 c3aa
e280 a6
6f6b75 7268656e6761
6369 6b616e7969
6f 79c3b4726861
6c616e 6a69
6c c3b46c61
6e69 73697265
79c3bb7368c3bb 6c65
68616e 7ac3ae627765
63697269 6261
6775 73697265
6e6e6f 6e7a61
617a69 7a697265
616b61 626f6e61
62697269 7a69
65 6875
65 79c3aa72656bc3ae7265
79c3aa6dc3aa72 c3ae727765
6277c3a2 636f
6f6b75 686f
6f6b75 6875736861
6f 726877
6162c3a2 6765
6f6d75 68616b6f
6e74 616261
6761 6b77c3a26ec3ae6e65
6e676f 6c61
6261 68756e67756d756b61
6f6d756a69 6e61
6277c3a2 736f
677761 6261
6d756b61 62c3a0
616e616369 7368c3bb62c3bb7a61
656d70 697261
6369 6e67616e61
6465 7369727765
6e61 6a69
7369 6261
6c756775 726875
6f6d75 73686f
6261726861 6777c3aa726869
616d61 67616e61
616461 7269
7475 6e6475
656269 62c3ae
65726869 6b776f
616b75 68c3a0
6269 6b697261
6f6b75 6c6f6e7a61
6d7069 7361
7761 6861
6f62756c69 676f
7477c3ae 727761
6261 6c656b65
6c77c3ae 7365
6269 6b6162756c69727761
6dc3ae7269 7a61
6261 79696d616e6761
656e 6a696e676f
6c75 6dc3a8
61 79c3b46361
626163c3ae 66756c6973697265
62616261 6c61
6d65 726f
7461 7469
79c3aa72656b65 7a65
68 616e6163697969736861
6c65 73697265
796f 74616d69
79c3b4 6b6f6c65
676f 6dc3ae7265
6e6769 7a69
6a61 63697261
6269 7a696275
656e 6b6f6d61
79c3b4 6b6f
6e 79c3a26c61
63 616e6461
616c69 7961
656d69 66c3b9
6477c3ae 72687765
656269 7368756e6775
6d77616e6469 7369
79c3ae 6d616e6761
6b77 616e616369
6765 727761
6c77 616e6b61
6f6b75 72686162c3a26c61
6d69 6b617a69
6275 6b616761
6261 79c3ae736869
6ec3a2 6269
79616e6469 6b7761
656d69 686572686f
656e 73686167616c69
6275 6b616c69
656d6261 6b61
7368756dc3bb 7369
6f6d75 6c616261
6c79c3bb 6d75
796967c3ae7269 7a61677961
6e676f 6c6f6e676f6c6f
62616c75 6e67657265
6ec3a2 7368756269
67656461 6c79616875
6d7769 67c3ae72697a61
63756e6775 6b61
6179c3ae 72696b61
76 c3bb
6563 616e6461
72686162c3a2 7a69
7268 77c3a26e69
6261 6c616e6761
61 6865
7761 79c3ae7368
6861 67657261
656e67c3bb 6bc3b9
68 69727961
6e6b75 67c3a8
6d75 6e616c69
7a61 6c69
676f 6769
6f6b75 627572687761
7368616e 64
62c3a0 62c3a26761
61 68c3bb6e61
6e67 c3a0
6e69 6b65
6d69 7268756d6261
7761 7268656e6761
6d75 6c616e6765
73686f6265 73697265
63 c3ac
6c75 7268616c69
61 6277c3a27268c3ae7265
61 6cc3a2
7961 676f
6b6f 6cc3ae7265
61 79756d76c3ae726865
61 6c616e67697261
6f6d7761 6d7069
796f 6e
61 6265
616d756277c3ae7261 6761
61 67616c61
7268c3bb6c c3bb6c61
6f6b75726861 6c7573697265
72687761 6a697261
62696e7969 6e7969
6b77 616e61636962c3a0
6b c3aa7261
6e7461 6777c3aa726869
6179c3aa 67657261
65 6865
61 62616e61
736865 6765
6761726861 6369
6e6775 6c61
6e 7368616e6761
616e61 7a69
6c69 686f
6e74 616861
6f6275 72686f6e7969
61 7268756d697265
73686f62c3b4 7a697a65
67657265 6d776f
6861 6369736967c3ae7265
627961 6d61
6d75 676f7a69
68656d75 73697265
616a 6972697261
6261 72686f6e7969
6369 626f6e61
61 7268c3a0
69 67756c61
6261 79616e646167616c697261
79c3aa 6dc3ae7269
6e c3bb6c61
616e61 66c3a0
67 c3aa
726875 62c3a8
68756c756c61 6d776f
6e7469 736869
6d75 7268756d61
6163c3ae 736875626972697261
6269 7369
656e6765 7261
7961 6369
6f6e61 6369
626f6e65 6b616761
67656e7a69 6b616e7761
61726861 726875
6f6b75 68696b61
627769 6b697261
7961 6261
62617969 6d6261
62616e616369 7969
7361677961 6d776f
626f 6c61
6f6d756c65 676572656765
7268656e6765 6d776f
69 6275
6ec3a2 6e61
6d61 68616a69
6f6b75 68697261
616d c3aa7a61
77696e6a 69726f
6b 6972616e61
65 6879
6f6c75 6a696d6269
6e7975 6e6461
6f6c75 6b756c75
69 6761
61 79616e64696b61
6275 6477c3ae726865
6f6b75 7268c3bb6c61
6e7368c3a2 6c69
6f6d75 7268756d6261
6369 6265
6c69 6e616c69
6d75736869 6d6265
6d61 7365
656e67756c75 6265
6b c3a8
6e69 6e6469
6c77 c3aa7275
61726861 63c3ae
77616e6b61 6d75
6d756e61 6b617a
6b6f6cc3aa 7369627761
73 c3bb
6d75 64c3a2726869
616e61 6c6f6e7a697a65
6f6b75 67657261
6d6275 67c3a26e616e6f
6261 68c3ae727765
6e7961 677761
616e61 7368756269
6269 7268656e6761
6e 736972c3ae7261
6761 6b617a69
616b75 6e697261
6d756e c3b46c61
7961 63c3ae
656e7969 66696e6a6f
656d70 6f6e67616e6f
6261726875 6d697261
6162c3a2 6e616e79657265
746f 66656c69
616e61 6d6d75
6d61 7a696275
6c77 c3b4
6d756e61 63c3ae
6c656b c3aa7265
6c6f6e 676572657a65
6d6261 62616c697265
6b656e6765 7261
6b61 62c3b46c6f
6b6173 c3ae
686f 6ec3aa6ec3a8
616b61 63c3ae
7761 7969736869
6d65 7961
7969 6c61
62c3a0 6b75
6d75726861 686162697269
73696e67 6972697a61
6275 6b65
6d61 6a697261
72687761 79756d76c3ae726865
616e616369 6c69
616e6163696261 68c3a0
616a 69726972616761
726869 62756b697261
61726861 64657268616761
6e 63697269
6c7761 67656e6469
7368656d65 736869
676f 6e69
77616ac3a0 6761
626f 68c3b4
6e7369 6d69
627761 6361
6163c3ae 7268696d6261
6e67c3bb 7a61
6e64 c3bb6cc3b9
616e616369 79696d616e6761
6e7461 686f
616869 7961
6d c3aa7261
6d69 68657261
6bc3aa 627761
6f6b7563c3ae 7368616c697361
6f726861 6b75
72686f6e6465 6b65
72686f6e64656b65 7a69
6f6c75 726861
6d69 7a697a69
616d61 7368656b61
6765 68617a69
6875 6c61
7969 6d627761
736861 6c756d75
736875 7368c3ae6e65
616261 6761
6f6d757369 67616c61
616261 6269
6e69 7961
7265 7961
6e7a69 67697261
73 697275
73697275 7369
73 7465
6d 6972656e6765
656d75 72686f6e64c3aa726f
6c 79616e
726875 6d69727765
616d61 68616e6761
6e676f 6e7969
6f6b75 73687562
656e79656e 7965
6275726861 6261
6b65 6d61
6e6469 6d69
62c3a2 79697368
6d75 6877696e6a61
616b6f 6c
6277c3aa 72c3bb6cc3a8
6c75 7368656b65
6ec3a2 6b756a697261
75 6d75
62617469 7a6f
6d617369 6e61676f6769
6c616e6761 6c65
626f6e65 6b616e65
6564 656e69
67616261 6d776f
6261 6475
6cc3ae 627761
656269 7368c3bb6c69
656d70 c3b9
7761 7268656e67616761
6f6b77 656e6765
79616e6b6972697261 6761
726875 6c697261
69 6b616e6f
68756c75 7365
7368616e 67756c61
617268656e6761 6d776f
6162616869 7669
6d65 736865
6b77616e61 7268756d61
62616e616369 79c3bb62616b61
61 79c3bb62616b697261
616e616369 73c3b46b657261
62616d75 626f6e61
72616e69 7961
61 79c3bb626173697265
61 676973687765
6162616869 74697469
67616e 6a65
63 616d75
656369 6e7761
6c69 7268756d697265
62c3aa 72697265
6f6b75 686572c3aa72656b657a61
6f6d75 7477c3ae
616c61 6d626167697261
69 6cc3aa726861
6f6d75 7268c3b2
687961 7369
61 6bc3bb6c61
61 6777c3ae6b61
62616e616369 67656e6461
656d69 7a69676f
616c69 6269726861
79c3b46d6f 6c61
7761 7969736861
77c3aa 7361
617368756269 7a61
7269 6d69
6761 68756c756c61
6d75 6769736865
6775 6d75
6269 6e6a696e6ac3a0
6261 7268616e616369
6f 6d6277c3ae7265
64 7769
726875 7969
726875 726869
65 6bc3a267617268c3ae
726861 6c756b61
69 7268756d61
6c656b61 6765
6b756c61 6761
6261 68756c756b61
656269 68c3aa7369
7368616e 69
7a65 7261
6b756e6475 736861
7065 7265
627961 6b617a
6875 67c3bb6c61
676f 6b6f
68c3a2 7969736861
6d75 6b6f6c616761
6b756c69 626f
79697275 6b697261
6b77 616e6162c3a0
6c616d75 7361
7a69 6e6f
6b61 6c616261
6e61 64657268616761
616e6b61 6d75
6e616d75 6b697261
6b7761 7268756d616761
616dc3a2 6e61
6d616e 67697a69
6b75 67616e6a61
736861 6c696b61
63c3ae 6b6f
6d7761 6c7961
6f6d75 6c757a69
6f6d756e7961 676f
6b61 7368616675
6972 c3a0
62616e616369 7268756d61
6d75726861 6277c3ae6e69
6b61 726869
62 697275
6f6d75 6c6576697469
656361 68697261
67c3a2 6e7761
69 74616d617261
616869 6e64616d756b61
61 7268c3a06c69
7965 68c3bb
6e 73696e67c3b46e6f6c61
6d75 68697265
6d62 c3aa726f
6d75 66c3b9
6f6b75 67617368c3a26e697a61
79c3ae 6d697265
63 c3aa72656b616e65
626172686162c3a2 7a69
6c7761 6dc3a2
c3a06c69 6d776f
62616e616369 68696b61
7469 7961
7675 6e7975
79657a65 7269
68 79c3bb
6d75 6b656e7a69
6261 68c3a26e61
65 68
6b616e 79
77616e6b61 626f6e61
6f6d77 c3aa7275
6d697265 676572656765
6b61 62c3a8
62616b65 72756269
65 62757a696e6461
6d75 6c6f6e676f
656269 726875676f
6f6b75 6c79c3bb6c61
6d7761 6465726861
6b75 63697a61
6f6275 67617368c3a26e697a65
6b77616e6b616e61 62c3a0
6c65 6761
6f726861 726875
61 72686f6e64
6269 6261
6a697a 69727765
6b616e 67c3bb6c61
657268616c69 6b776f
6d616e75 6c61
6563 75
6369 7268c3ae6e7969726f
6e67616c75 67616c75
616e616369 6c75
656269 7268616c69
7961 7a6f
6b61 63c3ae
6269726861 6777c3aa726869
6e7a69 6765
63c3aa 7369627761
69 6c6f6cc3aa72657a61
6775 736875
6b6f 6d62c3aa7261
6f6277c3a2 6e7761
6f6b756bc3a2 6a697261
736875 6b697261
6d 6861
7477c3ae 727765
6c75 6bc3ae
6275 7268616e6b61
6d75 67657265
65 6879c3a27369
6761 626f6e61
6b75 6c6f6c61
736865 736865
7368c3ae 62
6d756b61 6261
6d75 7368656b657261
6f6d75 7ac3ae7265
6b75 72686162c3a26c61
6661 6761
6b616e 797761
726875 7969736869
65 6ac3ae7265
69736875 7a6f
616261 6c6f
74 6972
746972 7361
6f6c7769 68c3b46c6f
6261 73756e67756e75
6f6b75 79c3a2
6f6c75 68616e6465
79616e 6b7761
6d69 7361
686573 626f6e69
73686f 6e7a61
736875 7269
6369 646572687761
6d69 74756e676f
627761 7268756d697265
61726861 626f6e61
6669 6e6a697265
6d616e 79c3a26765
656d6261 736861
61 626f6e65
686f 7a65
67c3ae7269 7a65
62616b61 63c3ae
68616e7961 67616c61
66756c69 7369727765
6d75 6b656e67c3aa7265
62c3bb 6d75
6861 736f7269
616261 79c3bb62616b616761
656b 726f6e69
616a 6972c3ae7265
79657275 62616c69
796f 7761
656e 6a756d61
6d75 79c3a2
726869 7a61
7265 61
6d77 656e656e65
79696e6a69 62616e61
62616c61 68697261
6c75 6261
7368757a61 677961
62756c69 6269726861
67696c 67616c69
656275 6cc3a26269
62616e61 6c61
6261 7268616e7a69
6d75 6c77c3a26c61
6b65 79696c61
616269 67617969
656e676f 6d6265
6e64c3b4 7361
6f6b75 7268616e67c3a27a61
79 656e6765
616869 746f66656c69
6c77 696e6ac3a0
656d75 68656e67657265
6c69 6861
6f 72686567656b61
79c3ae 6d756b61
6d7761 6d696b617a69
656d69 6b6f6261
656e74 616e7961
6b616c69 6861
6d75 686572686f
7368616c69 73697265
6f63c3ae 6b75626167697261
6f 7268656765
62 79c3b4676f
6168696b61 6d75
7a6f 726f
7a6f726f 626162656c69
6261 6469
6c75 7961
7965 6869
77c3a2 626f6e61
696469 6e69
74 77c3a26e61
6d62c3bb 6c697a69
6f6b75 73c3ae6d61
64617269 757369
6e65 6865
61736861 6bc3bb6c756c61
6d69 62c3ae
6269 6ac3a26369
63 69727761
6e6b61 62616761
627761 7268756d61
62c3a2 626f6e61
6b75726861 62c3a0
6f 7368696d6261
6877 656e79656e7965
726865 62616e7969
64756e6461 67616e61
616261 7361
6f6d75 6dc3ae6e7961
6f6d77 c3b46c6f
6f6277c3ae 7268c3b4687965
6f6d757a69 6769727761
6f6d75 7461676174c3ae6675
68616dc3ae7269 7a65
68 776f
616e616369 70c3ae6d61
6b616261 6475
6d75 626174697a61
6b616661 726e61
6b616661726e61 756d75
7365 7a617265
73657a617265 7961
616261 66c3b9
6f6b75 79697368
676972 616e65
63697275 6e646f
6369 6b61
6c75 6e616c69
6c7761 6c69
6b75 7369
61 6cc3ae6b61
7a69 6c61
616c69 6777c3aa726865
6b61 6c796f
6d61 64756675
67616c75 6b616761
6665 7469
6d616e79 7761
6275 6d6265
6c75 6d697261
6775 6d6261
7368616e64c3a2 6c61
61 626f6e656b657261
6d69 73697269
6b616e 616e69
616261 6b61
6369 64c3a2726869
7ac3bb 6b65
6b75 79c3a26b61
7361 6c65
726f 7469
6b616e7961 677961
6e64c3aa 7268657265
616b61 6369
6e616e 6b75
7368696e67616e 7961
736875736861 67c3ae7265
69 6e6a6f
6d75 6e7975
67757268616c69 6d776f
72686f 67657a61
62697269 7469
77616e6b61 6ac3a0
7469 6e64616b776f
6369 6e6f
6d75 6a
6e61 6b617ac3a267
6162 c3aa7275
616d75 62757268697261
6179c3a2 6d61
6c75 726875676f
69 68616d6167616c61
616261 6b617ac3a267
6b6972697961 7469
6e 67656e6465
65627961 62c3ae7265
68756e6469 6b697261
736875 6769
61 7268616e67
616761 7961
7a697265 6d776f
6168c3a2 6e61
6761 73686f
6f 62c3aa7265
62616d75 79c3ae726861
726877 616e616b75
616dc3a2 6ac3a0
7761 6d616e
6b616e7961 677965
6d61 726861
617969 6261
c3ac 7265
7268c3ae 6e797761
616d616c69 62c3bb6b6f
69 6b6f6c657261
6369 62757a69
65 646572687761
656269 68656265
69 7961
6e67 c3ae6e65
736869 6d616e61
6e61 79c3b4726861
7a69 6d6261
69 79696d616e6761
6b77 616e
6269 67616d6261
6775 7268616e6b61
6b75 64c3b47361
6269 68656265
6c75 6e6f
6261 6c697261
6f 6e64c3ae
6b7765 6261
6261736861 6d62c3a2
61 73c3ae6d697265
616d75 626f6e61
62616e61 6b6f6c61
616e616369 68696b61
75 6b61
736869 6d616e79697265
6b757268656e6765 7261
6c65 6b657261
687567c3bb 6c697261
6e61 6c796f
6775 6675
6d7563c3ae 6c616e6765
62756e67756c75 6b697261
6261 6cc3ae6bc3bb6c61
68616e 67c3a26e61
726875 626f6e65
62c3aa7261 6761
6d7761 6a697a697265
6d7761 6277c3ae6e65
676f 7368
7761 726861
6869 6e61
616e7475 6d697265
6e616dc3a2 626f6e61
6d616e7969 7365
69 6775
61 6277c3a27268616c61
6162 c3aa7265
73687562c3bb 7a61
6865 6b65
6269 73c3b46d6572c3ae6e65
6c75 67656e6465
6c75 6dc3ae7261
6861726861 736967616c616761
7369 67616c65
6d75 7368656e6765
79c3bb62616b61 677761
6d756c69 6d776f
6bc3a2 6a697261
6861726861 6a6972616761
656d 79c3aa7a69
6c75 7268756d61
62 69726f
74616b c3ae7261
62616e69 67c3bb7a61
64c3b4 73616e7961
6869 72686f6e646f
68 79c3b46e65
6861 7268616c69
6b75 6e797761
77616e61 626f6e61
73 656e676172756b61
616261 7268c3ae6e7961
61 79616e646167616c697261
6761 6b6f
6e 73c3ae6d697265
616e6b61 63c3ae
6dc3ae 727765
67c3a2 676f
6761 7268656e6761
6e69 656e656e65
6b69 7369
6269726865 626f
656e676f 6e64c3b47a6f
6e7369 726861
73 7461
6e75 6ec3ae
7969 6761
68c3ae 6e69
616b61 68616261626f
676f 6d697265
6f6b75 6b6f6c657261
6261 7475
62616e 6b616369
6cc3ae 7a65
68756c75 6b65
6f6275 72686572656bc3aa7265
62616761 6c
75 6e756e75
6f6b75 73c3ae6dc3ae7361
73696e67c3b46e6f 6c657261
6f6d7761 6d6261
616e61 6861736861
6b61 7461676174c3ae6675
6b75 6361
616e616369 7969
6c616e 64697261
6f 6777c3aa72687765
6b75726861 6c756b61
616b616e 79756e7969
6f6d75 6c656e676f
69 72686567656b61
c3aa7265 7a65
6675 6d697265
627769 6bc3bb6c61
6c656e6765 72c3ae7265
7975 6d61
77616e6b61 62c3a0
61 68756d61
7675 6e65
7a69 6e7965
6279c3b4 6e656e65
6875 6e696b61
656369 62c3ae
79696d616e 67697261
6c69 62
6b616e 676f
6f 63697269
6f 66c3ae7265
6c75 7a696e6461
62616261 726877c3ae7265
6d7761 6a69
7961 7268656e6761
7268756d61 677761
6869 7469
6a c3ae7261
7965 6675
6b756861 62756b61
6e64 c3bb
6e797765 726861
656e 6b75
67 6c61
6179c3bb 7369
62617969 6b697261
6d70 c3aa726f
62757a69 6b61
7265 7469
66756c75 6d7573697265
6d756e7961 676f
686572 6d6f6e69
c3a063c3ae 73686f7a697265
6b6f 627761
7675 6765
6769 6c69
6c616e 7a697265
626f6e61 6b776f
686f 7a61
6b75 68c3a0
61726861 6c75
7268c3ae 727765
62616b61 62c3a0
73686f62c3b4 7a61677961
61 686572c3aa72656b657265
6261 79c3ae726865
6f 7268c3ae
6f7268c3ae 736869
6b6173 697261
6b75 68657261
6777c3a2 7365
6e61 6875
6b 77c3ae726875
616261 726869
6261 7a696e6461
72686f 7a61
6ac3ae 7361
6f62c3b4 6261
6261 7268c3a0
62616e64 697261
6d75 62616e6465
726875 62696e6469
6168 656e
616e6163696261 64c3b47361
6f726875 62696e6469
6869 6d697265
646f 6469
7761 79c3bb62616b616761
6261 6b6f6c657261
6461 676f6e69
62616e616369 72686f6e64c3aa7261
616e616369 67656e6461
686f 7a697265
626f68c3b4 6c6f6c6f
62617261 6b69
6775 79c3aa72656bc3ae7265
616861 7268616c69
7368 697269
656d69 726865676f
6179c3ae 6d697265
62616e7961 6d627765
616261 79c3ae726861
6f6275 736f6c65
626f 6e7969
6275 6d62c3bb6c61
6163c3ae 79c3aa72656b616e61
67616c75 6b697265
7261 7469
616261 68c3aa6b61
6261 676572616d776f
68616e 79697265
657275 687961
6369 72687761
6b75 68616261
6261 62757369
6b 6c61
616e61 626f6e61
617361 68656c69
7475 6c75
6f77616e 74756d616761
62657469 7361
79696e6a69 687961
62c3a2 62c3a8
697a 69727765
7361 6b69
6775 6777c3aa726865
6c c3aa72657a61
6d75 736972696b61
6775 79756e6a77c3ae7265
6775 6cc3a8
6e61 68616d616e69
6261 6c77c3a26c61
6f6b75 6861
796f 77616b617a69
6277 697261
796f7961 6b696e69
6e65 74616e7961
6f6d77c3ae 6e61
6f 6c77c3a26b69726f
6162616e 7969
6dc3bb 6c65
6ec3a2 6369
6162616869 6e7a69
6275 6b77c3a26ec3ae6e65
616261 68616ec3bb7a69
6e656865 6d697961
72616661 68656c69
6f6275 6877696e6a61
6d756d75 6b757a65
70 6f6c69
6f726861 6b616369
67c3a2 6cc3ae7265
6f6d75736869 7a69
6c69 68656b657261
6d61 74617469
6d6174617469 79617369
61 706f
70746f 6c656d61
627761 6b75
616c 6b696d69
68656c69 796f
68656c69796f 646f7269
616261 67616c65
6e61 626f6e616761
686972696769 73697265
6775 6369
656d69 6b65726f
6f6275 7a616d6261
6162c3ae 73686f677761
6b757a61 6769
6d 62616e7969
616261 6c77c3a26c61
73c3a2 7268617a61
6465 7969
726877c3aa 736865
6d75726869 736869
6e 73656e6765726f
7375 7a616e61
6275 66c3bb6b65
6d 79c3aa7275
6d6d75 79616e64696bc3ae7265
6269 6c75
656e 6b77c3ae7261
6f6d75 6c656865
6d6261 6c697261
6163c3ae 79c3aa67c3bb6c61
6179c3ae 6e616d756c61
736865 6265
6b61 6b6f6c61
736865 72c3ae7265
6c69 79756e6a77c3ae7265
6277c3a2 7a6f
616261 7969
6c69 79c3aa72656bc3ae7265
6269 726875676f
6d61 7269
7465 7261
6e61 686f7269
66 616c69
6e67756c75 6b697261
7268656e6761 6b776f
62c3a2 62c3a0
66756e6469 6b61
62c3aa 7965
6f6e61 6b617a69
626f 6e7761
62c3b4 6b61
74756d62c3bb 6b61
73686f7368c3b4 6b61
6d756275 6e6761
6cc3ae 7a61
6f 7268616e616369
7969 7361
6e61 6277c3ae7261
616275 72687761
687765 7261
6861 646572687761
616a 697269
616e616d75 72686567656b616761
69 7268c3b46c61
63c3bb 736861
6566 726f6e69
6e61 67656e64
64c3b4 73697a65
68 6972697a61
6d7769 6e6a696e6ac3a0
616e616e 6461
6163c3ae 68c3a0
7a61 7969736861
726875 6269726869
616e616e 797761
6775 7a61677961
7368 69727765
6b65 64
6e6775 6d6261
6e61 6bc3a2
69 6869
6261 73c3b46b61
616e 79
7368756269 7a65
7969 6d61
616d70 c3ae7265
6e61 7368757a61
68617368 697269
6e79756d76 c3ae
6b756c69 6b697a61
6261 79c3b473697265
7975 6261
6261 7268656e7a61
69 67616c756b61
736875 7761
79657269 6769
69 68c3a0
65 6d70616d696b7761
68c3aa 7369727765
61 6cc3ae
68616d61 67617a61
61726861 62c3a0
6b656e67c3aa7261 6761
6777 697265
6261 67657a61
6e61 7469
656e 67756c69
6261 79c3a26d61
6e64 616e61
6d7761 7268656e6761
62c3bb 6369
6972 c3ae7a65
6c65 726861
6e6461 6761
6f 6d6d75
6d75726861 62c3a26761
6f6b75 7268656e7a61
79c3b4 7268657261
79c3aa 7a61
6bc3bb 7a61677961
6e63c3ae 6b75626167c3ae7265
6761 626f
7368c3ae 6261
6b7761 6d61
616261 72686f6e7969
6261 7268c3ae6e7961
61 7368c3bb726861
6f6d75 796168756469
7268c3b46c61 6761
7761 79c3ae7268616761
726875 6dc3ae7265
6369 68756c756c616d776f
656d61 67756c75
6f79c3ae 6d616e7a697265
67756c75 6d697261
67697269 7a65
617268616e 67697261
726875 6277c3ae7261
736875 62697269
6e61 6c656b61
6275 64c3a2726869
6e64 697265
6d77 c3b46e65
6d61 6875
63 c3b46e65
6d69 7a69
6b75726861 7268756d616761
68756e6469 6b697265
61 68696e64756c61
79616e64616761 6cc3ae7265
6b77c3a2 62c3a0
656269 6a696e676f
6a65 6b776f
616e69 67c3bb7a61
6261 68c3bb6e61
c3a0 7969
c3a0 726875
6765 7a61677961
6cc3bb 6c65
6f6b75 7a696d75
6a 616e
6562 79616e6b61
6261736861 6761
68696b61 6761
61 6c77c3ae7361
6875 7275
6f6b7563c3ae 6b7562616769727761
6c75 6777c3aa726865
7a c3a8
62616d61 6cc3ae7261
72687761 6269
6cc3b4 6c6f
69 6765726861
6e7961 6b7566c3a0
6775 7a65
7a6f 6e6761
616e61 6ac3a8
676179616775 7a61677961
6f726861 6b61
7268696e6469 62756b61
6261 736967c3ae7265
6d69 7268616d6261
7961 6b6f
616d61 7268616d6269
6d69 74c3bb6e676f
656e 67616e6461
7368c3ae 7a69727765
656275 6c796f
6f6275 72686572656d61
7a697269 6b6f
6b756c69 6b6972616e61
6369726869 6d62697269
73696e67c3b46e6f 6b65
656e73 656e7969
7269 7a69
6b75 68c3a26e61
7368c3a2 6c61
68696b65 6b776f
6563c3ae 6b6f
6e616c61 67616e7961677961
6e 67656e6469
68c3a2 6e697261
6f6275 6861
726875 6e6a69
6e61 67776f
6e67 c3b46c61
79616e6b 697269727761
6b75 6b61
6f6c75 6869
6b6973 756e756e75
6369 68656265
6d616e79c3ae 6b616e61
61 6b616e6469
6d61 67616c7567616c75
79616e 6b616761
6f6b75 79c3bb6b6972697a61
6f6c77 c3b4
6b75 726877697269
6dc3a2 6e696b61
64c3aa 6b61
6b75 6269
6275 6c756c61
6465 72687765
6f 6b6f
616dc3a2 7268c3b46c61
6f6b75 6d616e79c3ae7361
6a6f 6e646f
686f6e676f 6c65
616e61 6b6f6c61
62756c61 6a69
656d69 736967616c61
68616ec3bb 6c65
6269 7368696e67c3a26ec3ae6e65
6f 7368696d6265
6d61 67757a61
6a61 7675
6562 697261
6275 6e75
616e61 62c3aa7261
68 c3bb6c61
6d61 6cc3ae7265
6369 7477c3ae726f
69 62
6269 68616e646f
69 74617261
6261 6c6f6c61
62616c75 6b61
6777c3a2 73697265
656e c3b46c61
6f6b75 6c616b61
61 79616e646167616c61
6277616e616369 79c3a26b61
79656675 6ec3a8
67c3a26e616e61 6761
79756e6a75 6c697a61
6261 6a6972616761
796f 6e656e65
6f 6dc3bb6c61
67657265 6d7761
616e616369 626f6e61
616261 6675
6cc3aa726861 6761
6861 6469
79c3aa 7a697265
7268656e 7a697a65
61 726f
6261726861 7969
6f6d77c3ae 7369
6b75 79c3a2
6261 7369
62c3a0 79c3bb62616b616761
617268616e 6769
6f6c75 7368696b61
6f 79756d76c3ae726865
6d69 6e656e65
7675 6e79756e6775
6d75 7461
72686f 687965
61 6c6f6e7a61677961
6f6e61 6277c3ae6e65
79 6972
68696b61 686f
6a6f 6e6761
6f6d75 72686f6e7969
6261 66c3a8
6f6b61 6d75
63c3ae 68696e64756c61
7268756c75 6261
6261 72686567656b61
6261 68c3aa6b7761
6261 79756d7665
6d61 7368616e
62616275 67c3a26e616e61
7261 68616275
686572c3aa7265 6b65
6261 64c3b47361
67696c 67616c61
686f6e676f 6b61
6465726861 677761
6261736869 6d62697265
6b 69727961
62616c75 6e6775
616b61 76616e676f
6d69 66c3b9
6279c3a2 7a6f
73686572 c3aa7a65
6e 616e6163696261
656d69 7268616e6461
79c3b4 6b6f7a69
6dc3a2 72686f
6f726875 7268c3aa7261
6261 6c6f6e7a61677961
73686167616c75 7361
68c3aa 726865
6b616e 6461
6b75 79c3b4626f687961
6d77c3ae 73686f677761
77c3a2 6ec3ae6e65
6d75 6b77c3ae
7268616e6b61 646572687761
72687761 6c61
62616761 6c65
6d756675 6e67697a69
69 6e6469
6f6b75 6c6f6c61
7268 c3aa
7675 7268c3ae7361
6261 72686567657369
656269726861 6261
73686167616c75 73697265
61 66756d61
6275 686f6c6f
61626967617969 6c61
79c3b4 6861
6869 62c3ae
69736869 62616c69
61 73c3a2
6465 7a657269
79756e6a 61
61 7ac3ae6e65
79c3b4 6e6164616275
6e 6b77c3aa72686f
7765 65
6d7765 6765
6d77656765 6d65727761
656269 6d61736861
6e7a6f 6e676f
6e74656265 7268656265
656d69 6ec3a27261
6275 6879c3a2687961
736875 6e67c3bb
64c3b47361 677961
6b61 79c3aa72656bc3ae7265
6b61 7268696e64616b776f
69 79c3ae726861
61736861726875 6c61
79c3aa 68c3bb
6f6b75 7368756269
6869 6c
73686572 c3aa7a69
62616d75 6a61686f
6d65 736875
616261 6b616c64657961
616b61 68617369
616c65 6c757961
6275 6cc3aa6269
62c3bb 6c69
6d77 c3b4
7965736861 79616875
616c75 7368697265
796572656d69 7961
6275 66756d75
64 7261
616e616e69 7961
68c3bb 73697265
616261 6c6f6e7a61
7268656e 6769
61706f 6c6f6e69
6c75 79756e6a77c3ae7265
73c3aa 7a697265
6d75 736877c3aa6b65
70 726f
616e61 79756d7665
616d61 7268616d61
6775 63c3ae7265
73686572 c3aa7261
65 68697269
6f6275 7268616c69
6d657261 6761
6275 79c3aa72656bc3ae7265
6f6c75 68617a69
6c69 796f
c3a2 79697368
6b656e67 c3ae7265
6775 7268c3a2
676572657261 6b776f
6d657261 677761
62757a61 6d6261
62617268616e6b61 68617368
62c3a2 6b75
6e616d6d75 6277c3ae7261
6973 6f6d61
6e616d6d75 6277c3ae7a697265
63c3ae 6e61
6e 6b6f6261
6b657269 796f7469
6c616d75 73697a65
7469 7a69627761
6475 63
647563 657969
6d75 79c3aa6dc3aa7261
7369 6c61
66 6573
666573 746f
79616e6461 6c61
6d70 c3ae7265
6e7969 6e7969
656d706f 6e646f
6275 6e6461
69 64c3b4
616d75 68697261
616275 6d6261
61 74756c61
6d75 73687567756e75
6e79616d75 6c756d65
7761 79756d76c3ae726865
7761 6c7961
656e73686f 6d626f
6875 6d616761
616e61 68697261
61 6277c3ae
616b61 7268c3aa7261
6e 6972697261
726861 6d697265
67c3a2 62796f
6f6275726875 6e67697269
69 79616e6b61
6761 6b61
61626168697669 7469
6275 73
746f 7269
6b69 7469
7368616e6461 62616e61
6279 616e6162c3a0
6275 7268616e676972697a61
616e61 6869
6d7761 6a61
7961 62697261
6861 6d696b61
6f726875 68c3a8
61 7368c3a2
79616e64616761 6c697265
656269 6e7969
616e61 6277c3ae7261
6f6b75 7268c3b46c61
7a 6972697269
68 6972697261
65 6bc3a0
6861 7269
67656e64 616e61
6e6e61 77696e7975
6769 6b756c75
6369726861 6369
6d75 67756c61
62616275 72687761
6d75 74c3bb6475
6163c3ae 6761736861
6d616c69 6261
6261 68756d6261
6d70 c3a26761
61 6cc3a26c61
6361 7268756d6972616765
6d75 6e67657265
6275 746f6ec3a8
61 79756d76c3ae7268697a61
68 79c3a27765
61 72686572656bc3aa7261
626179c3ae 736865
6e 73696e6761
6f 67656e6461
6c69 62757a61
6b756c65 7268657261
6b77c3a2 676f
6d7761 6d75
6861 6d6f7269
61 6c616e6761
6461 6c
616269 73687761
6465 626f7261
69 79616d62616c61
6f6d77c3a26e61 68656e65
656369 6b696e6a61
6369 6b696e6a61
616e61 6b617a
69 68697261
6a616e6469 6b61
616261 7268756d697261
6f6c69 6d776f
616d61 6b656e6775
6e6469 6b65
6c6f 6c7761
7a 616e616c69
616e6b61 6a697261
6f6c77c3ae 6b6f
6d75 79697368
6b75 68656d756b61
6275 73756e67756e75
6e 7368616e6769
6ec3a8 6e65
6f6e61 63c3ae
72687761 67656e6461
63c3a2 6ec3bb6c61
7a61 6ac3a0
6d61736875 736869
61726875 6d697261
6f6b75 66756d7961
7268c3bb 6c7761
7368616e 7368616e
726877 c3aa7265
7369 67616761
6275 7361
616b61 6d75
6c69 736869
6c75 68c3bb
696875 7a696875
6968757a696875 7a69
6b616e 656e65
7268616e67 6972697261
6269 7268616e67c3a27a6f
6e69 67c3bb7a61
6f6275 6c796f
6e7465 72656b
6c75 6d696e6f
62c3bb 6c65
6475 6dc3a0
6c6f 6861
7268c3b46c6f 676f6c61
7761 66c3a0
6d756bc3a2 79756d7661
6d75 6c656b
6b75 67756c75
6f6b75 6a6972697261
68 79c3bb6c61
73c3a272c3bb 6c7761
7761 7a69
69 72686162c3a26c61
736f 6d657261
73686168756c69 7a61
6269 6b7769
6f726875 62c3aa68c3a8
6f6277c3b4 7961
616d61 6b6f6e646f
6275 6c656e6761
67657a61 6d776f
6c69 7268616e7a69
6d69 7461676174c3ae6675
6f6d75 7ac3aa7469
6e6b c3bb
6a61 796f
6c616e6a69 7369
62616e61 7a69
6d7061 686f
79697368c3ae 6761
616b61 7369
62c3bb 6d6261
79c3ae6d616e 7a61
697368 c3aa
646f 6c6f
656369 6675
6b75 736875
7368 77c3ae7265
6d77 697368
6269 6777c3aa726865
617268616e 6b616e61
7265 7a65
6261 626f
616dc3a2 626f6e61
7268616e 796f
616e61 73687562697261
6369 7475
6d756c65 7268657261
62616cc3a2 6c61
6f6d75 68c3bb726861
6d77616e61 62c3a0
6d69 6269736869
6d756e61 6477c3ae726865
6d7572686162c3a2 6c61
656369 7477c3ae726f
65 7268656e6761
6b75 6b756c696b697261
6261 67616e
6d70 c3aa7265726f
6c69 6869
74616e61 656c69
6e67616869 6769
616261 68697261
62697a69 62757a696275
6d616e7969 7361677961
656d 62756c61677761
7475 6d756c61
79c3ae 6d656d776f
73c3aa7a69 7a65
61 66
6b61 72686f6e646f
6d6f 736869
61 6bc3a2626f
6e61 6b616e61
656869 6e6a61
7761 7268756d697265
626167656e6469 6c77c3ae7361
68697269 6d7961
65 63c3a2626f
7368696e 67697265
6c616261 726865
7368c3ae626972697261 6761
62616c69 6269726861
616261 6d6f6e697469
626f6e65 7265
616b6f 6cc3ae7265
61 79616e6469
79696261 67697265
616b75 68c3ae7265
6f6d77616d62616c69 6b617a69
6261 68756e6775
6f7761 6465726861
6f6b61 6261
616e 6f
6f6c75 7368697265
64c3b4 6b6572657a61
6d75 73c3ae6d65
65 68796f
73c3ae 6dc3ae
6f6275 7368656e6765
7761 67657261
6d75726869 6e6469
656d697269 6d6f
6b617a69 6761
726875 6275
6d75 6ec3a27261
6d6261 72616761
6f726875 7475
62616e616369 6cc3ae6bc3bb6c61
6f6b75 6277c3ae7261
6261 7368756261
62616e616369 79616e6b61
6c6962 6e61
6cc3ae 6bc3bb7a65
65 67
62697269 6b697261
6162c3a2 6c65
62616369 736967c3ae7265
616e616369 6369
7261 6261
79c3bb6261 6b6f
6f6275 7268616e7a69
62616e6163696d75 6269736861
7268756d69 6b697265
616261 726877c3a26c69
6b75726869 6e64697261
65 6c65
6d62697261 6761
6f6b75 79c3b46b6f6c61
6261 68616d6167616c61
6b756e6775 6c61
6a61 6765
627566756e6461 66756e6461
6275 66c3a0
736877c3aa 73697265
73696d69 6b697261
6d75 7a616d6261
6d75 6c6576697469
6163c3ae 67656e64657261
6261726861 6c6f6e7a61677961
68656e 7961
6d616e79c3ae7361 677961
6b6f6d65 7a61
656e 7368616e646f
6369 68c3b467c3aa726f
6d61 626162616c65
627761 726875
6b61 726875
6861 6765
6d75 6dc3ae6e7961
6775 726869
6769 6c6561
67696c6561 6469
616d6f6e69 7469
6f6b75 79c3a26b61
616869 6d617369
617a69 67697261
62616e616e 79657265
6163c3ae 626f6e61
6d65 6669
75 7a61
6e64 616e69
68616461 64657a657269
6f6d75736869 676f
75 6e69
6f6b75 6e6469
6bc3aa 6269727765
6d75 6cc3ae
6e7961 6d776567656d65727761
6f6275 74c3bb6475
6261 7368656e6761
61 64657268c3ae7265
6f6d75 7269
6261726861 6d616e79697269
6e61 77c3a2626f
627761 7268656e6761
68c3aa 73697265
7065 6b61
6b756c65 6d6275
6162 c3bb6261
6162c3bb6261 7369
7465 6d616e69
7365 6c65
7368656d61 7961
7368c3ae 7361
6f6b75 6b656e677761
67616e79c3ae 7a65
6f 6c6f6e7a61
796967c3ae7269 7a69627765
74616e69 7961
6277c3a2 726861
6d75 79c3ae
65726861 62c3a0
626167617961 67757a61
6dc3ae 736f
6f6275 796168756469
6e 616e6163696465726861
616e616369 6e
627961 6ac3a0
62616d75 68697261
6f6b75 6d616cc3ae7261
726875 6c6f6c65
6d61 72687765
6162c3ae 7268c3b4687965
6e7969 736861
6c75 6879c3a2687961
63c3ae626f 6e7969
6d61 67656e65
6777 c3ae727765
61 7a6f
70746f6c656d61 79697369
6261 6777c3a272687761
616261 67657261
6369 70726f
6b75 6d6d75
7a69 7268756d61
6d61 66756e646f
6275 6461
6275 7268616e61
6f6d7769 6dc3a26e61
6b75 6cc3b9
6d61 7368616b61
72 69727761
6c79c3a2 6c79616e7961
6269 68616d6261
6f6275 63756e67757a69
62697265 6d7761
6b61 626f6b6f
6b75 73c3b46b61
656e 6b6f6261
6e 67616e7969
6275726861 6a697261
6f6b7563c3ae 6b756e6761
6cc3aa 62616761
6cc3aa 62697265
61 68c3aa6b7765
7268 77c3a26e61
616e616369 6d70c3aa6b61
616e64 72657961
6166c3bb 73697265
6f6275 626174697a6f
6c617a61 726f
67616e7969 6261677761
6c756bc3ae 6b6f
c3aa 6ec3aa6ec3a8
6b75736869 6d62616e61
68c3bb 6dc3bb6b61
7761 6bc3a2
6f 73687562697265
616d61 7ac3ae
72 69727765
6d756d616e7961 6765
6d65 6b
65 79c3a26765
7761 6c
6f726861 7969
68616e 67c3a26e65
616e616d75 68c3a0
67616c69 6e6461
61 72686f6e61
6775726861 6369
68c3a2 7765
6369 7969736861
7368616c61 6c6f
7475 6e69
7368c3bb62c3bb 6c697a61
6461 6469
736865 6c65
616261 7965
6f66 697269
69 68696b61
6777 696b61
6d697265 6b776f
7a c3b9
616275 6e67756c756b697261
6f6c75 62616e6461
6b6f 6c69
6269 6b656d6265
6261 7268c3aa7261
7268 616e65
7477 697261
70 657269
6d616e79697261 6b776f
736875 7275
616e616d75 6277c3ae72616761
73697265 6d776f
6d6972 656e676f
66756c69 6b616761
61 72686567656b65
6173687562 6972697261
6f 6c656b
6261 79c3a26bc3bb7a61
616d75 6c61
79696d75 6b69
69 6e6761
72687761 6b61
6d69 6e7969
7761 62c3ae7265
7761 79697368616761
6174 77c3ae7265
69 72686572656bc3aa7261
6d75 7965
676f 676f
6d70 c3a2
6e c3b46b61
656269 7369
c3b4 726861
6b75 72686f6e7961
7965 72656b
656869 676f6e646f
616369 7ac3ae6e65
61 79756e6a77c3ae7265
7761 6275726861677761
6879 c3a0
6e616dc3a2 79756d7661
6e616e6b61 6369
616e61 6c
7761 79c3bb62616b61
79616e 6b697261
6e61 6c7961
61 6cc3ae6bc3bb6c61
616c69 62697268697261
61 6d616e79c3ae7361
6f6b756d75 68c3a0
6d70 656e65
6f62756461 68656d756b61
6d61 6477c3ae
616e616369 68c3a0
7368c3ae 67616761
6f6275 72687761
726875 7a69
6d77 697265
6d69 7369
7268616e 7a6972
62616d75 6277c3ae7265
6261 66756b616d6972697a61
6261 6c6f6e7a697a65
6269726861 6369
6e61 68c3a26761
6675 6e64
6465726865 7a61
616e616369 67657261
6c75 73697a65
616275 6c
6dc3b4 6d61
68756e6469 6bc3ae7265
616d75 6a61686f
616e616369 62c3aa7261
6d70 616d61
6d7075 67c3bb6c697261
6d756861 6b6f
6e7369 6d756b61
6361 7969736861
7a69 7268616e6b61
6e7461 73c3a267
6d75 6c
6f6b75 73687562697261
6b69 6e65
6d75 73687562
61726861 68696d7761
6261726861 626f6e61
6261 7268c3b46c65
726861 62616c61
6a61 67
7a69 687761
6f6e61 6b617a
6d756c75 736861
62616e616369 6d616e79c3ae7361
6269 6475
69 62c3aa7265
73c3b4 6b65
6e6a 6972697261
77616e61 726875
6e6b75 7268756d697265
6261 6c756c69
6d61 6369
7761 68c3a26761
64756e6461 67757a61
7368616e64c3a2 7a65
67656e6461 6769
61 6c656b69
62616261 6277c3ae7261
6b656d62c3bb6c61 677761
61726861 79756d7661677961
6f6d75 6277c3ae7265
6261 79756e6a77c3ae7265
656e6475 6e64756c69
66756b61 6d697265
616e 6a69
6d75 627572687761
6369 6d616ec3a8
726875 6e677761
7a6f 6e7a697265
726875 7268c3a2
6f6b75 7268756d696b697261
6c7761 63c3ae
64756475 6d697261
72 c3aa
726861 6dc3bb6b61
7761 67656e64
6d77c3ae 6d6f
6261 73c3b46b657261
69 7368616d62c3a26c61
616e616369 79616e646167616c61
7268616e 67756c65
77616e 6b616e
62616b617a69 6d75
6275 7368
68c3b4 7a61
7a697269 6d776f
79656e6465 7261
6e6a75 6d61
6f6d75 6869726f
6f6b75 62617268756c61
7761 68697261
67617268616c69 6d776f
6b65 72756269
62c3bb 62616b65
656d70 6f676f
796f 6d6269
62616b617a69 6a697261
72756e6775 73c3a8
6f6d75 736861
6d6269 6b65
63c3a2 796f
616b 6973
6b75 6761
68697a697265 6b776f
79616e64696b61 677761
68616d6167616c61 6761
6162616e 6461
6c7761 6b75
7a756e67756c75 7361
6e61 62776f
6d62c3bb6c697261 6b776f
6a6972697261 677761
6a 69727765
726875 6d616e7965
6769 7a6f
62616e61 7961
6f6d75 68616dc3ae72697a69
79c3bb7368c3bb6c61 6b776f
6c616e 677761
656e6f 6e6477c3a8
6b657261 6761
65 6265
6f6b75 6875
6c616d62c3bb6c697261 6b776f
65 73c3aa7a69
62616d61 6d75
72686162c3a2 6761
79616a65 7765
6d75726875 6d6261
6d75 7ac3ae7265
616275 73697265
6e 6e696e6469
6d75 73686f6d796f
6361 6a61
616e61 72686567656b61
6c7761 7969736861
6c7961 6ac3a0
65 6c796f
62657265 7261
6265 7a61
6369 79756e6a77c3ae7265
6d75 6875
677761 7268656e6761
6d7563c3ae 73c3aa7a65
697368 c3a2
6d75 6c6f6c61
63697275 6d6275
6c61726861 6c61
72687761 79697368
616b6f 7a697265
616e61 68617368
79c3bb62616b697261 6761
6562 697275
6f6b75 686172c3a26d7961
6168c3a2 6e79697265
6f62756c61 67c3ae72697265
616d61 6b616c61
6f 6465
6e6163c3ae 73686f7a697265
626167616c75 67616c75
7a c3b46e65
6775 72686567657369727765
6c7761 72686f6e64c3aa7261
6f6b75 6cc3aa6261
6f6275 6d7675
62616b617a69 6465726861
6d75 62c3aa7265
6d75726861 6261
62616261 68696d61
63 616b61
65 68c3ae6e69
63c3a2 6e6f
626179c3ae726861 6761
61726861 62c3ae7265
6d75726861 79756d7661677961
626167656e6469 6d756277c3ae7261
7961 7a657269
626167656e6469 68616e6461
7761 6761
7765 6b69
68696e6461 6d756b697261
6c7761 6369
7065 6f7269
66 657269
6e6461 6869726f
6d696e7961 676f
6d756e7961 6761
7965 7368657261
726865 7a69
63c3ae 73686f6761
6f 79c3bb626173697265
616261 6777c3aa726865
6e61 7368656e6761
6b6f 6d6f
6b75 6b756c75736861
7a69 67657261
657a c3ae7261
7761 6d616e7961
79696261 67c3ae7265
656e 7368c3b46b6f
6f 73c3ae6d65
c3a2 6b75
6162616e6469 7369
6563 697265
747761 6761
6d75 6e7977657369
7268656d756b61 6761
6d7761 6c69
616d75 68c3a8
6d75 687961
7a69 6a697261
6f 726869
6f6d75 6e
6c77616e61 6465726861
627769 66756c69
6c65 726f
6f7a696275 6865
697275 6d6269
6563c3bb 73686f
6f6c75 6c69
6261 62c3bb6861
677761 6b617a69
6d77616e 64616761
6d77616e64616761 6c6f
616b61 67756d61
67657a65 7269
746f 6e69
7965 617269
7469 6d
7761 6d7061
7965 736865
7269 6d6f6e69
68c3bb 6b6f
616b6f 6d65
656875 6469
62617368616e6461 62c3ae6e65
7a65 62616869
61686f 6e676f6c61
616261 68696d61
6d616e6f 616869
6f 7368756269
6261 676f726861
6d616e79c3ae 72697261
656e7361 6c616d75
726875 6e6163c3ae
73c3a272c3bb 7a69
6261 6b656e7969
6b75 68657a61
656279c3a2 6e69
6f6265 6469
6f6b756869 6d616e61
64c3bb 726861
6dc3bb 6b697261
67616e c3b46c61
6e6761 6c69
616a c3a2
62616d75 79c3ae726865
7761 66c3ae7265
62616e61 6b6f
6e61 6869
6f6b75 68657a61
62616e616bc3a2 6465726861
626167756d61 67756dc3a0
6261 6b656e677761
6369 79616e6a61
6d656669 62616c69
6f6275 6e7475
7461 7969
66 c3b46c61
7ac3bb 7365
6d70 c3a26e61
6f6275 72686f6e64656b657a69
6b6f 7761
6b6564 726f6e69
6277c3ae 6b65
616261 67656e6461
726f 6d6f7261
6b61 6b776f
6168616d616761 7a61
62616369 7a61
6e74c3a2 6c
656e 6bc3b46d65
656e6bc3b46d65 6475
6d75 63756e67757a69
67616e 797761
6d 6d616e7961
62c3bb 6865
616e61 79c3ae
6d7761 79756d7661
6875 7361677961
6bc3bb6c65 6d776f
61 736877c3aa
7061 72
66c3bb6c61 6761
6f6d75 736972696b61
6d7661 677961
6e67 c3aa7361
62616a 616e6469
6f 6c616e67c3a26cc3ae7265
6f63c3ae 6b75626167697265
616d6f 7369
6b61 76616e676f
6e65 62757a61
65 6c616d75
6c77c3a2 62756b6f
6e7a69 687761
726875 6b77c3a26ec3ae6e65
6275726861 6b61
6261726861 62c3a26c65
6562 79756d7061
6d65 6b6f
656e 6a617675
616261 7065727369
69 79c3bb62616b7761
6275 6877696e6a61
79c3ae 62756b61
6e6475 6e64756c69
62616e61 6465726865
7369 6c697369
73696c697369 7961
6477c3ae 7268616765
616b69 6f
616b696f 726f
6777c3a2 72687765
66 656e69
65 6d7075
6d757a69 68697265
6f6c77 616e64696b6f
626574 6973
67617a61 7261
7368656b65 727761
73 74
6b61 64756d61
73656e6765 7265
6d626f 686f
6d75 7268756d697265
677761 6d75
6e7969 67c3ae72697a61
79c3bb 6d61
66 616e616e6461
6275 6e616d75
656e 7469
6e6e75 6e67c3aa6475
6f 73686f6d6261
6b75726861 7268756d61
6e 7a69727765
6b77c3ae 7269727761
62c3bb 73697265
7761 626f6e616761
656e 6e6f
656e6e6f 6e6777c3a8
6563697261 6c61
626f 6e6f
616261 6b616c
6162616b616c 64657969
6d75726861 73c3a267
72c3bb 6269
6261 72616761
6d75 666172697a657969
697275 6e6761
6d616761 64616c
6d61676164616c 656e61
62617261 6261
62617469 7a69627761
6f6275 6c616e67616c65
6b6f 7269
7469 746f
6d756c616d75 7365
6369 7ac3ae6e65
616e61 6a6972616761
6369 6ec3aa6ec3aa6ec3a8
6c75 6a697261
7a756e67756c75 6b65
61726861 626f6e616761
68616e 7a61677961
79696775 6b61
62c3a0 626f6e61
6b75 7961
6cc3a2 6d656b
6269 6e6f
61 7268c3bb6c61
7769 6e6a65
64 7761
6b61 6475
616d75 726865676573697265
6c61 6d697265
6261726861 626f6e616761
6275 6d62697265
6c75 6469
6b656e 69
72 6d61
6865 7469
65 62657269
627573 656e69
63696e61 7268756d61
7061 74726f
7361 6469
6461 7969
6e 73c3ae6d61
6275 73686f7368c3b46b65726f
6d62 7269
65 7369
6265 6c61
616d75 79c3aa72656b61
70657269 7a69
6c7961 6d61
6b616e616369 7268696e64616b776f
6861 7969
61626f6e61 6761
617268c3a2 6c69
72687761 7969
6d6261 67697265
6d 6d616e6a61
62616e616369 79696d756b61
62616e6163696d75 64c3b47361
616261 626f6e61
656369 626972697469
726875 7a61
7ac3bb 6b6972697a61
69 6d6277c3ae7261
6c61 736861
6f6275 73686f7369
6275 73686f7369
61 68656261
6d61 6b69
7065 6c61
6f 6e79756d7665
616261 736861
6e7969 6d616e7a697265
6d75736869 7a69
726875 747961
6b61 62696e6469
6e616e 797761
616e 7368757a61
6d6269 73697265
62757a69 72686f
616261 7268756d61
6b65 64617269
6d65 796f
6f 6777c3a2626f
656269 68616e646f
6d61 7ac3ae6e6f
676f 6ec3aa6ec3a8
6369 7268616e7a69
6261736869 7a69
6b61 626f6e657a6f
6861726861 6369
61726875 68c3a0
6f 6b616e7961677965
6e6e616e 6b75
6f6e61 6a697265
6d75 736865
7a696275 68697265
68657265 7a61
6973 65
6469 6e61
616b616c69 68697261
6f6d756c61 6769
7368696d6275 6c756c61
7268697261 677761
6f6e64c3ae 6bc3bb7a65
6d756e61 6369
6f6b75 6b656d62c3bb6c7761
69 68756c756b61
61 73c3b46b61
6269 6e6761
6261 6bc3a26765
68616e 69
726875 6e616d75
616b616e 7a6f
67756c69 7a65
62616c75 6d756e61
7368616d62c3a2 6c6f
6e 79c3aa6dc3ae7265
61726861 67
616d75 79c3ae726861
6369 7268697269
6269 7268697269
6d69 68756c69
6f 77c3ae726875
656d 7669
62616275 6d6265
68 656e67c3bb7a61
6261 72686567616e7961
656369 66756675
6d75 72686f
61 79c3b4
6f6761 6c
69 6e74
676f7368 656e69
616e616369 79c3a26d61
677761 68696b61
616c61 6b697261
6d69 7368616e6769
6261 7361
7261 6d75
6277 6572
62776572 c3bb6c65
6e61 67656e6461
6b75 6d756c75736861
6f6d756e7961 6d61
6b61 62757965
6f 626162616c697265
616261 67656e64
6261 62616c69
6d616e79c3ae 6bc3ae6e65
73696e67c3b46e6f 6b61
6c69736869 6e6a6f
66756d6261 726865
6c757a61 62657469
6b75 64c3a2726869
6d7761 6d616e7961
6e616261 68c3a0
7961 6d776f
627961 6d776f
62c3ae 6e7475
6f6b75 6a
6261 79c3bb
6e c3aa6e65
6261726861 6269
62616275 6c65
62 79c3b46865
6c75 64c3a2726869
6a6f6e6a61 6761
6e616d75 6c697261
6d77616e61 6d616e7961
616b61 627761
616e6a69 6b7761
67756c69 6d776f
6c69 62c3a8
6f6e61 6c75
62657261 6d776f
62c3a0 63c3ae
6e79616e 64756dc3a0
6e7965 67656e
6c697261 6b776f
68656e616e 67756c61
6b75726861 6dc3bb6b61
6e 79c3aa7275
6f 79616e64696b65
6f6b61 6a697261
6f 73687562
656d 6265
6c7761 626f6e61
6761 7a69
656369 68756c75
6d657265 72616761
7369 7a69
6d62 c3b4
77616d75 68c3a26761
6b75 676f
7969 726861
616b61 7961
616e616369 73c3b46b61
6f6b7563c3ae 7368c3ae6761
6b6f6c65 7369627761
67616c69 6b776f
656269 676f
6275 67c3a26e616e61
656269 726865626f
6a c3aa
6e7461 6d6269
6f6d75 7268616d6261
6cc3bb 6261
72686572656b c3ae7265
6f6d75 7368756d69
79616d6269 6b65
6269 6b617a69
6f6b75 79c3ae6d696b61
6d 79616e7961
6e756ec3ae 72697a69
6279c3a2 6e61
62756c61 67697265
7368696dc3a2 6e616e61
6e61 62c3aa7261
616b6973 c3bb6e756e75
6f6b61 6c6f6e7a61
6d61 79616e64696b65
6e6e61 6d6269
7268c3bb6c 6972697261
6f 6d
6b75 6a7567756d7961
6dc3bb 6b65
62c3a0 6e616c69
6261 6a6972697261
6562 79c3a2626f
726875 6c756775
6861 6b616a697261
616e61 79616e6b61
61726861 62756c61
6a6972 69727761
6269 72686567657369727765
62616c61 6b697261
6d77697368 c3a8
6269 7268616e61
79c3b4 6761
7a69 6777c3aa726865
6d69 676f6265
6c75 68c3b9
6173687562 697265
62616e61 6d616e7961
616e61 79c3b4726861
6261726861 67
6269 6e6a61
6bc3a2 62c3a0
6b75 79c3b4726861
6d61 677961
6275676f 6e7969
7a61 6b617ac3a267
6e7961 6b61
77616e6b61 6a697261
656e676f 6e7969
68 69727765
6261736869 6d6265
6775 6869
6775 7a69627761
6c656e 67616e7961677961
6261 7ac3a26e7761
616261 6d6d75
62616b61 6d6d75
68696e6475 6c697261
68c3b4 6c657261
76 6f
69 6861
7477c3ae 72c3ae7265
7961 6c796f
6b697269 7a6f
7375 7269
626f 6861
62756c65 6265
6163c3ae 6a697265
616d616c61 67c3ae72697265
63697275 6e6461
62616dc3a2 6ac3a0
6c75 6e6475
62616e 65
6e79657265 7265
616761 7268616c69
6b61 7268756d61
6b616e 79697265
79656e 6a61
6f6b75 62756c61
616bc3a2 6c6f6e7a61
6bc3bb 6e6761
6261 686972696769726861
62616e616369 62616277c3ae7261
6c69 6261
616e616369 6c616d62c3bb6c61
626f 6b69
6b756c69 6b6972
6b756c696b6972 c3ae6e65
6e7969 736869
6f6d75 6cc3a26c69
616e6b61 6d616e7961
6d75 79c3ae726861
6261 68c3a26261677761
79c3bb 6b6972697a65
6e65 61
6b756869 6b
6d7769 68c3b47a69
616d616c61 6d626f
6f6d75 68c3a8
61 6b6173616e7a69
6865 736869
6e6765 727765
6765 7368757269
6f6b75 79c3b4626f687961
6f6d616e7961 6765
6e73686f 6d626f
6f 6777c3a26765
6b756c61 6d62c3bb6c65
61 6b6f6c657261
67616c61 677761
6865 62697265
6275 67756c61
6d75726861 6d75
616869 6761
79656765 6d657261
7369 6765
6d6275 6c697265
616261 6c77c3ae7261
6261 7268616e67
6d62c3ae 7361
656b61 676f6d6265
6861 6d697261
6269 7469
63756e6775 6c616761
617969736861 6761
62776966756c69 6b77c3a8
67 69726f
6b756c69 62757a61
6369 73c3b46d6572c3ae6e65
62616761 7368c3a26e69
677761 63c3ae
6d756861 72c3a26d7965
6f 7a6967697261
6d757a696275 6865
62616bc3a2 6769
6dc3ae 6e65
6d61 6b616c69
67c3ae 72697261
7268c3b4 7268c3b4
6c61 6261726861
6e6e616e 6469
617975 6e616d6972697a61
6261 79616d62616c61
6b6972697261 6761
686f 726f6e69
6567 6c6f6e69
6d69 73697265
62616369 62c3a0
6e6369 6777c3aa726865
6c7761 67657261
636f 6e656e65
6769 646f
6f6b75 67656e6469
6b757a69 67697261
64c3aa 6b6572c3ae7265
6b75 79c3bb62616b61
6e 616e6163696d75
7a 616e616369
7761 7268616e6769
6d757969 6d6265
6b756c75 6d6261
62616e 797761
686f 6c61
6b61 647567756e6475
73616c 6d756e61
627761 68696b61
6f6c75 626f68c3b46c6f6c6f
6162616e 69
62616d75 7368696d6261
61 6c616e67c3a26cc3ae7265
c3ae7261 6765
6d756269 736869
6777c3a2 7268c3ae7265
616e616369 7268756d697a61
626179c3ae 6d616e
6167656e6469 6d75
73616e 7965
62756c69 6b616e61
62616761 6c697261
6b616e6b61 6d697261
6d757a69 67697261
7a69646f 68657261
62617368c3bb62c3bb 7a696e7965
726875 67656e64
6765 6261
627761 6369
63c3b4 6b6f6c61
61 79756e6a756c61
6162616261 6c697261
6b756c75 7368697265
73686f6c6f 73686f6e7a61
6163c3ae 68697261
616261 67656e6469
6775 72686f
6b6f6d 796f
617969 6b697261
6761 6c697265
61 726865
6d756c61 6b697265
7265 6b616275
6b61 6c656e6765
6261736869 6dc3a2
6e7969 687961
6f 62c3b46c61
6b61 646573697265
7761 6c65
6f6e74 6162c3a26c65
68616e 756e69
616e61636963c3ae 73686f6761
6f 79c3aa6dc3aa7261
79c3bb7368c3bb 6c697261
7465 6b6f7761
61 76756761
6f6d757a69 726875
6e61 79c3a26bc3bb7a61
6c77 696b756e6775
6b61 79756e6a756c61
6f726875 626f6e657a6f
6f6d75 6ec3a27261
6c616e 67616c61
6e61 7268656e7a61
617475 6cc3ae7361
6277c3ae 72686f6e7a69
616b61 6761796f
6275 6c
6d69 6b65796f
6261 74616dc3ae7265
62616e6163696d75 6a61686f
6d75 6c6f6e7a65
6f6d75 74756e676f
79c3ae736861 6761
617a6172697961 7369
656c697961 6b696d75
61 7368616e64c3a27a61
6761 79697265
6369 7a756e67757a756e6775
6279c3a0 62c3a26761
6162616861 72616d697961
67616e79c3ae 627765
7a69 6b75
6e6761 66756c61
61 7a696275687961
616269 6e7975
6d75 6c6f6e676572657a65
6261 73687562697265
6a6f 6e6a6f
736869 626972697a69
6869 6c69
656d7061 6dc3ae736f
686f6e676f 73697265
79 656e6761
7261 6765
6b75 73c3ae6d61
656269 74616275
676f 7269
676f7269 6769
6265746973 757269
6875 62756b61
6b75726865 62616e61
62616bc3a2 6c6f6e7a61
6f6d75 68c3bb7369
61706f6c6f6e69 79757369
706172 7469
656369 6e7961627567756d61
6e 7368756269
6e6b75 6e6461
6170 6f6c6f
6b61 6877656e79656e7965
616e64 616261
6775 6a697261
6e73696d69 6b6f
61726869 736869
676572c3aa7265 7a65
6d756c61 6261
616269 6dc3a26e61
7461 6bc3ae7265
7475 6cc3bb6b61
6b75 796967c3ae72697a61
656369 726861
65 7368757368697265
6b75626167697261 6761
6d75 6c656865
656279 c3a0
6c75 79c3ae72756b61
616261 7368c3a26e61
6f 726877c3aa736865
6d616e7969 627761
7368c3a2 627761
6d75 79c3a26b65
7675 6d6261
6e7969 7368
6b616e 74696e64616b776f
6ec3a2 7268656e7a61
63697a69 6e676f
796f 68616ec3a26e69
7268657265 72656b
6170 c3ae6d61
6162617361 647563657969
696d6d75 6277c3ae7261
746f 6d61
6f7761 6d6d75
6f6b756c65 6d7761
7a61 72686f67657261
6e7461 6d6d75
616261 68616dc3ae72697a69
65 73696e61676f6769
6d6172 7461
6f 79c3aa6dc3ae7265
6167 7269
61677269 7061
6f6c75 62616c61
6563 6972c3aa7265
726875 6e79756e7969
63 6972c3aa7265
656d696e7961 6675
79c3ae 7269
61 68696e64756b61
6275 6d62616761
6865 68c3aa
6d756b61 6c7961
6261 73687567756e75
62616e616369 79756d7661
6e7a69 62616c61
6f6b61 6369
6a697a 697269
6d61 68616c61
6d756e 616e69
656869 6e6469
6ec3a26b75 68c3a0
6e6475 6d65
6e 616e69
6761 79c3b4726861
73 656d75
626163c3ae 68697261
6d616e 7975
6675 6b75
6bc3a2 6e61
6b656e 617a69
67657261 7269
6162617965 627573656e69
6465 64616e69
76 616e69
7365 6c61
6f6275 6c65
6d696c 6b61
6e65 7961
6162616e7961 6d6973697269
6e61 68616e61
6e 6b756c61
6369 67616c69
736f 7761
736f7761 7269
6261 686972696d61
6b6973 65
6b656e69 7469
616261 706572697a69
79c3ae 6d65
6e73687562 6972
6b656d62c3bb 6c7765
616d75 626f6e656b657261
6d75 6b656d62c3bb6c65
68616e 6b61
6c69 7a696275
6d61 73756e67756e75
6e797765 7361
73c3aa7a69 73c3aa7a69
69 6777c3ae7368697261
61 7a75
62616e616369 67656e64
6c756b75 6e6461
69 68616e6461
6d75 68c3a2
6e616b75 6a697a697265
616269 68697261
7368656e6765 7261
6761 7368
6b75 68c3bb6e61
616d6f 6e6b61
616275 7369727765
72687761 68696b61
6f726861 6c61
62617969 6d756b61
6f 72686f6e7961
65 73696b65
6573696b65 6c69
62616761 6d776f
6761 62697265
616e61 63697269
62616e616369 68c3a0
79616e6461 67616c697a61
6c c3ae6e65
616d75 68c3ae7265
6761 7368697261
77616e 74
6f 6d77c3a26e616e79657265
6d7069 6b61
616e61 67656e6461
6bc3b4 6c65
7061 64616e69
616dc3a2 62c3a0
62c3a2 6c7961
7761 67656e6461
6c69 6e6a69
61736875 62697269
6c65 7268657265
616e61 79697368
6e 66c3a8
69 62616e69
6261726861 62616e61
62696c61 6861
616269 726875
627961 6b61
c3ae 6e61
6c69 73686f7368c3b46b61
6c75 726875
616d75 6777c3a27268697261
61 736967616c61
616b61 6a61
61726861 686162697269
616761 62697261
61 67756c61
616d75 6777c3a2726861
6875 7369
79c3aa6dc3aa7265 7265
616b c3ae726875
616261 7961
67616c69 73697265
6d70 6572
62616e61 6b617ac3a267
726875 6861
79696d75 6b65
65 62616c69
7365 7269
6d616469 79616e69
616d616e 756b61
626972697261 6761
627961 6d75
6c69 62697268697261
6277616d75 6777c3a2726861
616e61 68697a697265
6e6775 6c69
616e616261 6277c3ae72616761
6d70 6f72686f
62c3a0 6b617a
6b616c69 68697265
6d77 616e616369
6f6b75 67616e6a61
64c3aa 6b65
616e61 6b776f
6168 c3a8
6761 726875
61 796972756b697261
6d616e79 6972697261
62696e61 62c3a0
726875 68696b61
72687761 6275
62616869 7361
616b61 6a697261
726875 6a
6d65 6b61
64c3a2 6e61
c3ae72 697265
6f6261 68c3a8
62616b69 6e79
62616b696e79 7769
68656265 7269
6f6b756d75 64c3b47361
7961 6861
6b69 7a61677961
6e 6777c3ae7368c3ae7265
657269 6769
6b61 7268656e6761
736f 6e6761
69 6269736861
617675 67756d756c61
62616b61 6769
6261726861 6a6972616761
6d70 c3aa
616261 796562757369
73697265 6b776f
6e 6b6f6c657261
6f6a69 6277c3ae7261
6b75 7268756d65
6c7761 6b617a69
65 79756e6a77c3ae7265
6f726861 6c75
6879 c3a06c69
7a61 6369
6d7769 6e6a696b756c75
65 7268c3a06c69
6e61 7268656e7a61677961
7a61 7268656e6761
79 69727961
6f6b75 68c3aa6b61
616d61 7675
7761 6c776f
6e616d75 6c65
6261 68c3ae7265
656d69 7a697a69
726875 6c656b65
6a6f 6d61
6275 68656e61
7369 6d696b61
6d61 7261
6e796567656e 7965
6c7761 6465726861
6dc3a2 6861
656d69 76756e7975
72687761 6bc3a267
62c3a0 6bc3a267
6261 7268656e7a697265
6c69726861 6369
6b6f7a61 6b776f
6261726875 6c65
7961 6b617a
6bc3a2 6e7961
6c77 616e6163697368757a61
6e61 6a6972c3ae7265
6f726875 6277c3ae7265
62c3a2 6e65
6c69 646573697265
79616e 6b616e61
6cc3a2 6c697261
62616e61 62c3a8
656369 7368616d626f
63697275 6775
6f726861 6269
6b75 68616dc3ae72697a61
6875 7269
736869 6765
616d61 66756675
7368616e 6a
62696e 6e69
6369 726865626f
6d69 7368756d69
6269 6e6a
6d75726875 6c65
6f6e61 6269
6275 64696b75
7369 6261677761
79c3bb 6d7661
6f6c75 7368656b65
77616e61 7969
6168 697265
616b61 6c
6f6b75 626162616c697261
6e6475 6c61
6b75 68616d6167616c61
62616e61 7969736869
656d69 676f6265
6269 6a697261
73c3aa7a69 627761
70 61686f
62c3a2 6369
6279c3a2 796f
62696e61 6b77c3a26ec3ae6e65
697368c3aa 6761
6f6275 6875
6b75 7368656e6761
68c3bb 6e697261
6e7369 6b6f
6f7761 63c3ae
6e7961 67c3a2
67c3bb 6c6f
726875 67617469
6e6b61 6c616e6765
6261 7268c3bb6c61
61 72686567656b616761
616b61 6d616c616e6761
6369 6e79c3b4627761
6777c3a2 62796f
616d61 63c3ae
616e61 7268c3bb6c61
6b616a697261 677761
677761 6ac3a0
6f6275 6c656d61
7965 67c3bb6c65
616c69 6b776f
616dc3a2 79c3bb7361
6b77616e6b61 7268756d61
6d7761 6761
6b75 6cc3ae7261
6261 79c3bb62616b65
697368 c3ae
67616e 6b61
62616e61 6861
6269 6a6f6e646f
c3ae7265 6b776f
616dc3a2 79c3bb73
6261 796567657261
6f6b75 6cc3a26c61
67 6972616e61
6f63c3ae 7a6967697261
69 7477c3ae7261
6e7461 646573697269
6865 6d77c3ae7265
6c697a69 6b61
616d61 74617261
617268616369 6777c3aa726869
77616e61 6b61
7965 67c3ae7265
6b656e 61
6b75 62c3aa7261
6b 656e65
79c3bb62616b61 6d776f
6b616275 6c697265
6675 6475
6d75 6c7965
7268c3b4 687961
736869 6d62697269
6c75 7268616e6b61
7368616d62c3a2 6c65
79696d616e 67c3ae7265
6765 7a697a65
6e61 74616e61656c69
616e61 6465726865
62c3bb 687761
7761 68c3a0
616e616369 7368656e6761
626179c3bb62616b61 6d776f
616e61 6b69
73687562 6972697265
6d 62756c616761
6e616d75 68c3a26761
6d7761 67656e6469
6861 68616e
6b617a69 6261
6d61 7a69
66c3bb 6e75
62616e616369 6c75
616b61 6761736861
6162617a69 6869
626f 6a69
6e6465 6b65
616261 7268616e7a69
6277c3ae 6bc3bb6c61
7368616e7368616e 79756c61
6f726875 62616e6461
7a696275 68697a65
616d61 6477c3ae
616761 6769
6d 7269
6c75726861 6369
7961 6b617a69
6e79616d75 6e79657265
656369 68756d6269
6d70 6f6e67616e6f
6f6277 c3aa
6f6277c3aa 6dc3aa7265
6d756e61 6d616e7965
7961 79697269
6f6b75 79616e6b61
6d7761 6b616e61
6d61 736869
6d75 79756d76c3ae7268697a65
726865 67616761
6e61 67657261
6b61 6675
6f6d75 7268756e6475
6865736869 626f6e69
7268656e67616761 6d776f
7368 656e
62617268616e61 79756d7661
617a69 67c3ae7265
6f6e61 79756d76c3ae7268697a65
6d75 6c6f6e7a61
6562c3ae 72c3a0
6f6e61 626f6e65
7a69 79756e6a77c3ae7265
6369 6e6761
6d61 7268616e67756c6f
6f6e61 6b6f6c61
6e61 79616e6b61
79c3ae6261 676972616761
6b6173c3ae 6d697265
62696e61 7368696e67c3a26ec3ae6e65
656e 7368616761
6f 6d616e79c3a26765
6261 7477c3ae7265
6d75 6461
79756e6775 6b61
79c3ae6d61 6d776f
61 79c3bb6261
77616e61 62c3a0
6275726875 6e67697269
77616e6b61 63c3ae
6563 c3aa
6f6b75 76756e61
6f6b756261 6277c3ae7261
7a 616e69
62616e616d75 6277c3ae7261
77616d70 c3a26761
68696e6475 6b697261
7761 6d
79756d7669726869 7a65
6f6b75 74756c61
6369 6b75
6f 67616c756b65
6c65 6d776f
6d62 c3aa7a61
62c3a2 7969736861
6f 79c3b4726865
6f6b75 67616c756b61
6261 68696e64756b61
6861726861 63697269
6e 63756b75
686572c3aa72656b65 7a61677961
67 c3aa7265
796f 6e676f6c6f
62616e616369 6777c3a2726861
6b756e61 7368696e67c3a26ec3ae6e65
62616c77c3ae 7365
686f 6e64616b776f
6d61 6b65
6861 63697269
6369 676f6c65
7361 6c6f6e69
6d65 6769646f
79c3aa 736861
74 616c69
79c3ae7268697261 6761
6e61 6ac3ae7265
6e 73656e67c3ae7265
616e616369 796567657261
6162 c3bb
61 7368657261
62616761 62c3a26e61
6b75 79756d76c3ae7268697a61
6261 6c6f6e676572657a61
67616c69 7a65
616261 7469
6e6469 6d69726f
6b6f6d65 6b657261
62616e61 72686f6e64c3aa7261
6170 616d756b61
6e616e61 62c3a0
7375 6e696b61
6269 6c757368697265
6269 6b616c69
697269 7a65
6c69 6b75
6d75 6269736861
7965686f 6e6174616e69
616e61 6ac3ae7265
6675 64756b61
6f6e61 726875
6e 7368696d6261
6261 6bc3bb6c65
6b6166656e6465 66656e6465
61 79756d76c3ae7268c3ae7a65
616e616369 6cc3ae6bc3bb6c61
656d69 68616e6461
65726861 6b61
6b75 626f6e656b65727761
726865 7a61
6261726861 7368696d62616761
6d70c3bb 6e79697265
68656e616e 67756b61
736f 6261
6f6b756e 79c3ae726861
6d697261 73616e6f
6f 6d626162616c697265
61 676572616d776f
7369 6b6c61
73696b6c61 6769
656369 79616e6a61
617969 6e616d756b697261
6e74 656e6761
656e 63756b75
69 6769
6b616c656e6765 72c3aa7265
68697261 6d75
616e616369 6d616e7961
62617368616e6461 62616e61
656e7369 6e64616e69
6c61 6d62696b61
6d 69727761
7761 6277c3ae72616761
736861 66617469
7065 6c657469
65 79c3b4726861
6167657261 67657261
7368c3ae 7a697265
6e616b75 64c3b47361
6875736861 7969
6d75 68616ec3bb7a69
6e74c3a2 62796f
6f6b75 73686572c3aa7a61
61 79c3aa72656bc3ae7265
6e6475 6b61
616261 6d696e7961
617261 76
61726176 6e61
62616dc3a2 626f6e61
6865 6d616e69
7268656e 64c3aa
79756e6a75 6c697261
776163c3ae 73686f67616761
6369 68c3bb7369
616b75 7a69627761
61 6c77c3a26c61
6b75726861 6c757361
6f6b75 6e7977c3a26e61
656269 627761
6869 726861
74656765 73697265
6963c3ae 66756c696b61
6775 6c697265
7368616c69 7365
79c3ae7368 697261
73656465 6b6979617369
656369 62756e75
6e6465 7268657261
616e6163696d75 7268756d697261
62697261 6765
6174 616c697961
686f 6e796f
73686f 7368
62616e616369 63c3ae
6f6d75 63756e67757a69
7368756269 67
68697a65 6b6979616875
79c3b4 6369
686f7a65 7961
6dc3aa 6469
6877c3aa 72c3ae7265
6ec3a2 7969736869
62 6c61
74 7369
616861 7a69
62c3a0 6e61
7965 6475
79656475 74756e69
7a69 67697265
726875 6d7761
6275 6761
72686567616e7969 7ac3ae627765
6761 63c3ae7265
616261726869 6d62c3bb7a69
6b75 79c3aa72656b616e61
7a69 68697261
62616e61 7969736865
6162616861 72c3a26275
6269 6861
7268656765 6b7761
647261 6b69
6261 74616e69
6e 616e61636962616277c3ae7261
6e7975 6e6a
6d617365 7961
6b756c61 6b61
62616c61 7469
6f6275736861 6d626f
6f6b756d75 6277c3ae7261
6ac3a2 6369727761
6f6b75 66756d61
6761 68696b65
6775 646572687761
6f6e 666f
73c3b46d65 7a61
6f6c75726861 6d62c3a0
617a6f 7469
6e6a61 7675
7761 796f
6163c3ae 6b75626167c3ae7265
73 7061727469
62616261 6c69727765
656369 746572757369
66656e69 73697961
746172 7369
6d61 6c6f
617975 6e6775
7268616e6761 67
6e69 6769
79696261 6769727761
6b61 79756e6a77c3ae7265
6275 79c3bb
6f6275 66c3bb6b65
6275726861 6777c3aa726869
6f6d75 676f6265
617969 6e6a69
6f6d75 68616e7961
726f 676f
64c3a2 6761
616b61 62c3a26761
6563c3ae 68c3b4686f
626f 6cc3aa72657a61
6d69 7268616e796f
6cc3a2 6e6761
6f6275 6b656e7969
6b75 63697261
6269726861 6a697261
726f 686f
7ac3b4 6865
6e6b c3bb6c61
6cc3ae 6b697261
6475 6e6761
626173c3a2 72c3bb6c61
616261 6275
616d61 62c3aa7265
627573c3a2 6e65
6e 7368757368616e6f
6f6275676f 6e7969
6f6d7563c3ae 72616e757a69
656e 6769736861
6369 7368616d626f
62c3a2 63c3ae
6777c3a2 62c3a0
647562756c697261 6b776f
6b616d61 6c6f
6675 6d697a65
6261676f 6e7969
6761 796972756b61
63c3bb 6d7061
6b61 726561
6d75 626f6865
6d75 63c3bb6bc3a0
656d 79c3bb6b61
69 66c3bb6b61
6465 796f
6f7761 6c6f6e7a
616261 796967c3ae72697a61
7368616e 67c3ae7265
616261 6b656d62c3bb6c65
6b6f7269 6e7469
6d75 6b697a65
616b61 62c3aa68c3a8
6c756c69 6d776f
61 6c656d61
6c69 7268616e61
6775 736865
6269 6d616e79c3ae736f
6261726861 6bc3a267
7ac3bb 6c75
6b756c61 6d776f
67657a61 67657a61
6369726861 6b61
7475 6c697265
6c6f6c65 726f
677761 6369
63c3b4 626f
6e6461 6c77c3a8
63697369 6b69
6661 7269
6d65736865 6b69
74657261 6869
77 75
79c3a2 6769
7368616e6461 62616e7969
6bc3a2 6465726861
6f7761 6b61
6b75 6c656d6265
6777c3ae 6b616761
627573c3a2 6e69
6d61 6d627269
7061 72616e69
6d65 6c
656869 676f7a69
79c3b4 7268616e65
7461 726f7469
6e6b75 68c3a8
67616e 6a697261
7961 62c3a0
6e616e 6b6f6c61
61 796567c3aa7261
6e746f 6e79697265
68 616e616369
6e61 73687562697261
726877 616e616d75
62617961 6269727761
6f 79c3a26b65
6b616261 67616e61
6b697265 6d776f
61726861 6d616e79616761
7961 6b697261
6d7069 6b65
6d756b61 73696e6761
62c3a0 6ac3ae7265
6e616b75 6a6972c3ae7265
6562696e7969 6e79c3ae
6261726875 6e677761
7a756e6775 6c61
746162c3a2 6c61
61736869 6e6761
74756d75 7a61
616b c3aa7265
62616e61 67656e6461
31 33
617268616e 67756c61
6b75 6e6461
6c75 7675
617975 6e616d61
6d75676f 676f
6d75 6e79756d7665
62616d75 6cc3aa7268657261
6d75 6c6f6e7a697a65
6f 62c3aa7261
61 6c6f
6172686f6e7961 677961
7961 62796f
6e616e 6b616e61
6761 736865
6f6c75 6879c3a0
62c3ae 6b697261
6e64c3aa 7268657261
6173687562697269 7a61
67c3ae 7a65
68756d65 6b776f
6f6b75 6769736861
6261 6d616e79c3ae7361
736861 6b756c75
616b75 6769736865
6962616e69 65
6d75 6e7761
696b75 68c3a0
62616e616e 797765
6e616b75 7a61
6d756e61 6269
736875 6275
6e616b75 6a6972697261
6e67 616e65
656e 6775
656279c3a2 6e61
61726861 6c61
7761 6b6f7a697265
626f 6e616e61
6e 79c3b4626f68697265
69 6c7761
6b75 6c77c3ae7361
6261 796567c3aa7261
6e616e 6477c3ae726865
73686f6b6f 6c697265
6d70c3bb 6e61
72687761 6b617a
6d61 67616e7961
6d706572 c3aa7265
6369 7368756e6775
79756d7669726869 7a61677961
6f 73c3b46b657265
7761 79c3a26b61
6d61 6cc3ae
6261 6c616e67c3ae7261
61 6d756c69
7961 62756c61
736865 6c61
67617969 7361
61686f 676f6c61
69 74616d616c61
6c696e61 646573697265
616e61 6b617ac3a267
67c3ae 7361
69 6a69727761
6cc3ae 6b65
656e 616261
6e 6972c3ae7265
69 69
6e79c3b4 6b61
6261 6cc3aa726865
6d75 7368616d756b61
6c c3aa7265
6261726865 6d756b61
6261726861 6d616e79616761
6b75726869 6e6469
6369 736861
627769 6e6469
6261726875 7a697a65
6d75 6cc3aa726865
726875726861 6d616e79697269
6261 6cc3aa6261
726877 656e656e65
62616e 64c3a26e61
73686f 6b6f6c657265
6d75 79616e6b65
62616e 67657265
6d616c 6b69
6ec3aa 7361
6e61 66c3a0
686573 726f6e69
69 79616e6b6972697261
726861 6c757361
79697368 6972
616b75 7268656e7a61
77616e 64c3ae
6c75 67616c69
62616d75 68c3a8
6675 6e67697265
6b75 6a
6b75 7275
6162616277c3ae7261 6761
6d756269 6475
6d7761 7969736869
7761 67656e6469
6277 6972697a61
6f 66756d626173697265
6e69 6765
6d756bc3a2 6a697261
757a69 79656c69
68c3a2 636f
7a61 6d776f
616cc3a2 6cc3ae7265
6f6e61 646573697265
62697275 6e646f
726875 6c6f6e7a697a65
627961 7268656e6761
6c75 6a
616d61 6875
65 63c3a2
6d756b61 6c69
6369 7268c3a2
74 656e6761
6172686162c3a2 6c61
6b75 7268616e676972697261
68616e 6b6162c3a0
6f6c77 616e676f
6179c3ae 726865
6f7268616c69 6b776f
6b656e67 c3aa727761
6c75 7a697261
6d62 c3aa
6e616e 7969
6c756d696e6f 6d696e6f
6c77 697261
626167616c75 6b65
627761 6261
6ac3a2 6d776f
64c3aa6b657265 7a65
79696775 7361
626972 7965
696b75 6277c3ae7261
7ac3a2 7a61
79696d616e 67697265
62616e6b61 63c3ae
656e 6b6f
79c3bb 6c65
68c3b4 6c65
616e6b61 6465726861
6972 c3ae727765
616e616b61 677765
6d756c69 62757a61
6973 c3ae
6269726865 6b776f
616675 6e6469
6d61 76616e6765
656d697269 6e6761
6f6b617a69 79c3b4726861
656e74656265 7268656265
656269 6e79c3b4627761
656269 67616269
6269 7268616e676972697a61
6c75 6b616e
6e74 c3bb
62757368 77696e6a69726f
6f68697265 6b776f
6f 72686567656b65
6f6d75 7268756c65
6f6c75 6261
6261 72686572656bc3aa7265
6e6b75 6d7765
7a756e6775 7a61
6f6b617a69 6a697261
627769 6b697265
6e6765 726f
6279c3a2 6c776f
6265 73616c65
7969 6d
6e616261 6277c3ae7261
62616369 6b616e7969
7761 7268656e7a61677961
7761 6bc3a26769
6f 62c3ae
616269 6e6a61
6275 736f
7961 67776f
6cc3b4 6c657261
6f6b75 79616d62616c61
616e616369 68c3a26e61
6f6b75 68616e
7268616e 67697265
6261 686972616b776f
6777 616e616c69
74 77616e
6261 6d6269
6277c3ae 6b697265
61 6cc3aa726861
62616e61 6775
6f6d75 63c3bb6bc3a0
6d75 6475
656e6f 7a697265
6f6b75 7268c3bb6c6972697a61
6f6b75 6879c3bb6c61
73687562c3bb 7a65
616d61 6369
616a697261 6d776f
6b756e 6972697261
656369 74756d62c3bb6b697a6f
616e61 6a
616e61 79c3b47268616761
6e67 69726f
7268616d61 677961
616e616d75 68c3ae7265
6861 6c79c3a26c61
6d75 6c656e676f
796f6e676f 626572657261
6b75 6d61
6f7a69 7a697265
63697475 6d6269
72686f 67c3ae7265
6b61 6b75
79c3b46d6f 6b61
6c7761 6b61
7a69 7a61
6bc3a2 796f
6f6e616261 6277c3ae7265
6d61 6869
6e7475 6d65
62616e61 6d616e7965
6b75 6775
6d7761 72686572656bc3aa7261
62 6972c3a26c6f
7268656e 7a69627761
6179c3ae 72687765
6f6b75 67616c756c61
6d756c69 6e6469
676f6d62 c3b4
6369 6b77c3a26ec3ae6e65
73686f6c6f676f 72687761
62616c61 6d62696b61
79c3a2 6e65
6e67616e 756c61
6962 656e64
6962656e64 c3aa7261
6f726861 6a6972616761
62616dc3a2 7268c3b46c61
77616b61 7a616769
6dc3a2 6d61
7368c3ae62 6972697265
62616e61 7268c3b46c61
67c3a2 636f
656269 6b6f
6d756a69 6e61
6d75 68616e7961
6d76 c3ae7269
6765 6d6265
61 72686567657369727765
62616e61 62c3a0
6361 7268656e6761
6e61 6bc3bb6c61
6b756c69 6b776f
6777 c3a8
62616e616369 68756c756b61
6d61 6c656b69
6261 6877c3aa7261
6e67756c75 6b61
6f6c756869 6e7a6f
6e61 67656e6469
6c796f 6e656e65
79c3aa6d c3aa72c3ae7265
68616d61 67657261
6e74 617969
686168616e 7975
6d6261 68697265
62616b75 6d6261
6f6d756c69 6d627761
6ec3a2 6c75
6c75 6ec3aa6ec3aa6ec3a8
6a61 6769
6261 68756d61
6465 736972616765
6e7461 6277c3ae6e69
6e74 616e7961
68c3bb6e61 6761
7368c3a2 62c3bb6b61
6e 79c3bb62616b65
62 656e6765
6e65 68617369
6d75 6c697261
6275 6e69
7365 6c6f
73656c6f 6665
73656c6f6665 68616469
6261 79c3bb7369
6d 79c3bb6b61
6c6168 6972697261
7761 6875
6e65 626f
7765 7269
656e 6775726875
6d75 79c3bb62616b61
626172 6e6561
63 616861
6d7761 6c656b61
6761 7969736861
6f 79c3bb62616b61
6275 6c656e7a69
6d75 68696b61
6d75 73697369
61 67657265
616d75 6a6972c3ae7265
73686f6b6f6c657261 6761
6c616e6761 6765
6f6b61 626f6e61
6f6b75 79c3aa72656b616e61
6c61 6d697261
736877c3aa 6bc3ae7265
6d6d75 726865676573697265
63c3ae 66696e6a61
6277c3ae 72697a65
6f 6777c3ae7368c3ae7265
6f6275 67756d61
6f726861 79c3a2
77616b61 6465726861
6d75 7475
66c3ae 72c3ae7265
6261 686572c3aa72656b657261
6269 6ec3aa6ec3aa6ec3a8
6261 6d756c69
6163c3ae 73686f67616761
6775 6e616d75
6b75 687761
6869 6e
73c3ae6dc3ae 7365
656e6765 7a6f
6f6d75 6775736875
6f6b75 62756c616761
627961 6b75
6c6f6e c3aa6e65
7368696dc3a2 6e65
79c3aa6d c3aa
6777 69736869
7675 6e79697265
6f6e61 6761
677761 6c69
69 6b6f7a69
6861 62756b697261
6b6173697261 68696e6761
79657265 73697265
6e74616861 62697269
616261 6b6f6c657261
6b756c61 6d61
6b61 6465
6261 7268c3b47268c3b4
62616e616369 6b616e7961
79616e64616761 7a61
6c75 62756e6775
616d61 67616e7961
6c6f6e 7a69
68616d69 6b65
7975 6dc3bb73697265
62616e616369 747761
68697269 6b61
7961 62696e69
7268 77c3a26765
6261 7269
6d62c3bb 6cc3ae7265
62616761 62697261
6e6965 6c69
6172686162c3a2 6c697261
6869 6e6f
736865 7469
62616e6163696d75 68c3a0
6c656bc3aa7265 72616761
616b75 6e6775
65 6c697269
6d65 7a6f
6b756c75 6c61
6261 79616e646167616c61
6f6b75 6c77c3ae7361
6261 67697261
79756d7669 6bc3ae6e65
6e79 77c3aa7261
7265 6269
6b61 627761
656369 686572756c61
6d69 6c6f
62616e616e 797761
74756c61 6b776f
6f6b75 7368757a61
616e61 6d6277c3ae7a697265
6e6b 77c3a26ec3ae6e65
6e7961 7a697265
62616dc3a2 6d75
7268656e7a697265 6d776f
c3ae 7361
6465 6b6572c3ae7265
6e616e616369 6ac3a0
7761 79697368697265
6e61 7ac3a26c61
67616c75 6b69
616261 73c3a272c3bb7a69
79c3aa 67657261
61736861 67616c756b61
656c 6b616e61
6861 62c3a26761
6d62 6972697261
7a69 79c3ae72756b61
7961 67757a61
6168656e 616e
616269 6e6164616275
67656e6461 6765
69 66756e646f
61 6cc3aa6261
616e61 79756d7661
6275 6e67616e616369
656e 66756b61
77616e6b61 6861736861
6261 6a7567756d61
6e7368c3a2 6769
6e6a75 7a61
77616e6b61 6d616e7961
6bc3ae 7361
616261 72686162c3a27a69
61 6d7075
79696261 676972616761
616869 6d656c656b69
6172686162c3a2 6cc3ae7265
7761 62756c61
61 73686f6e657261
6e616e6b61 6d75
656369 7268756d697265
73686f6d 627761
6b657265 7469
74756d69 72687761
6d75 7961
6e7461 67
616261 62696e6a69
6c757a69 62757a696275
6b756e61 67697a69
73657261 7961
617261 6d697961
62616761 6c69
6d75 6b616e
7461 7961
627761 6ac3a0
6b77616e6b61 68617368696b616e61
62656e61 7961
7477c3ae7261 6761
6f6d756c61 7a6f
616e61 746f
616e61746f 7469
61 79756e6a757a61
64 7265
7268656e64c3aa 7a65
6168697261 686f
6269 6b617a
616861 7368
6d697261 6765
6e7461 64657268616761
617261 62697961
73c3ae6d61 6761
6e61 79c3bb7368c3bb6c61
6b617a69 6275
6869 6e7961
68696e64 77c3ae7265
6f6b75 6b6f6cc3aa7361
677761 79756e6a756c61
61 72686572656d657261
6261 686f6e676f6c61
67657261 686f
6769 6c657961
67696c657961 6469
656e6b75 6765
6b75 67616c756b61
6b616c65 6dc3aa7261
6e61 77696e7975
6e63c3ae 62c3aa72c3ae7265
616d75 7368696d6261
616e6163696261 68c3aa6b61
6777c3a2726861 6761
6269 62616e6465
6b756c69 6e6461
6973 616e
6973616e 64756b75
616261 6b617a616769
6c756c69 7a61
6b65 6269727765
68696c 6b6979616875
6e65 6b6f
746f 66657469
6261 79c3b46b657261
7461 6d75
72 6e69
6277 616e6162c3a0
69 64c3a2726869
62616b75 7a65
6f6b756c75 6dc3ae7a61
697275 6dc3a8
6f 726e
6f726e 616e69
6f6b75 68616ec3bb6c61
79756e6a75 6c6972
79756e6a756c6972 c3ae6e65
64 616e6761
6f6d75 6861
616e61 626f6e65
6d61 6b77c3a26e616e65
6761 626f6e65
6f726875 6b6f6d796f
656269 7268616e7a69
616d61 67616c65
6f726875 62c3bb6c69
6f6b75 6c757368697265
6f6b75 68696e6761
6d7579756d7661 677965
6168697269 6d61
6261 62c3ae7265
62616e61 79c3bb62616b616761
736861 6bc3bb6c756c61
7265 736869
7a65 72
7a6572 7a65
7a65727a65 7369
6d75 686f6e61
6b75 6cc3ae7265
68616765 796f
656b 626174616e69
6e7461 626f6e616761
7061 736865
73616e 62616c617469
6e616e 6369
6b656e67c3aa 7269
79 77c3ae7265
6f6275726875 6e7a69
6168696b61 7269
62 7269
726875726861 6777c3aa726869
6b756e61 7268756d65
6f6275 6c656e7a69
6d 656e69
6265 6c
736877c3aa 6bc3bb6c61
66c3b4 6d656b6f
616d61 7268616e67756c6f
79c3aa6d c3aa7a61
6f62756c69 6d6269
79696775 6c697265
6b75 76756761
656d7075 6e6475
66 6f6e666f
6f6b75 63697261
7368616e6461 62c3ae6e65
68756c69 6b697261
6b 6c65
7268756b61 6465726861
676f72696769 79617369
68 77696e6a65
696475 6d657961
6a 7761
6e7a696275 6e7a696275
65 7061
62616869 6761
6d757a69 67697265
6261 6dc3a26e61
72686f6e64 c3aa7265
6261 76756761
6d75 6b656e677761
69 6a69
6f6d75 7368656e7969
6275 63c3ae
6b757268c3a2 7268756d65
6261 6b656e67c3aa7261
656369 68c3b4
62c3a0 6b617ac3a267
6d75 7ac3aa7469
6b6173 c3a2
616261 63c3ae626f6e7969
6162616e7969 6e7969
6269736861 6d626f
6f6275 68697269
6d76 c3ae
6b616e 7977657369
6ec3a2 63c3ae
6b61 76756c696e6469
6c 67756c75
6261 6877696e6a61
656269 67c3bb6bc3a0
67c3b4 6865
616261 7368696d6261
6261 68696e64756c61
796967c3ae7269 7a69627761
6f6d756761 6d62616e7969
6f6d77 656e6765
61 73686f6d6261
6f6275 6dc3ae6e7961
616c69 6d776f
6d616e 6ac3a0
6f72686163c3ae 6b756261676972616761
656269 7368616d626f
6277c3ae 7269
c3ae 6461
c3ae6461 6b6f
6e6369 6477c3ae726865
62617268c3a2 6369
6d75 73c3ae6d7761
6e61 6dc3a0
6cc3aa 72687761
6f6b75 72686562616e61
6277c3ae 7a69727765
6dc3ae7261 6761
6f6d756869 6e7a69
7a69 6e7a61
68c3b4 72686f6c61
6e 73686f6d6261
6275 6b656e6765
6f6d75 63697a61
6c616e6761 6cc3ae7265
6369 64756b756c61
616dc3a2 68c3bb
616dc3a268c3bb 6e67c3a0
6dc3aa 6dc3a8
676f 726865
6d756c61 6b65
6e6e61 6bc3a0
77616e 6b756261
6f6d75 74757a69
6ec3a2 7969
796967c3ae7269 7a697a65
6b756c69 6d776f
63c3ae 79756e6a757a65
6ec3a2 68616e61
68616ec3a26e69 7961
6e65 72697961
6168616e 736869
6f6c77 696b756e6775
68656d75 7369
7361 6472616b69
6d65 73616b69
616265 64
61626564 6e65
616265646e65 676f
6775 7268697261
7a69 6d6d75
62c3a2 6d6d75
7a65 6265
7a656265 6465796f
79c3a26e61 6b776f
6277c3a2 7268616c65
61 66c3bb6b65
62616d75 79c3aa6dc3aa7261
6265 74616e697961
6b617969 6661
66c3bb 73697265
6b65 6661
62616e7461 67656e677761
73 746f
737465 66
7465 73616c6f6e69
746573616c6f6e69 6b61
66656c69 7369
6d756e6461 6d756b697a65
6d756c75 68c3bb6b6f
656d65 7261
6277616e61 6361
6761 6475
73 656d776f
6c75 6c65
6f6d75 72686162c3a27a69
69 68696e64756b61
6b75 79696e6a696861
6d6f 6b61
6b75 73c3ae6dc3ae7361
77616d61 6a697261
6e61 6d616e61
77616e 6a6f6b61
6d65 7475
61 79616e6b6972697261
69 6777c3aa726865
6e61 686f
656279 c3a06c69
627761 6b61
7a697265 6b776f
6c6f6c6f 6b65
6f6275 6cc3a0
61 68756c757361
c3a0 62c3a26761
68696e64756c61 6761
6d61 68c3aa6d61
63c3b4626f 687761
66756b75 6e7961
7075 7469
7961 736861
6761 736869
7365 6261
7268616e 676972616761
7475 62616c69
62616e61 6777c3aa726865
677761 6b61
62616e616369 6277c3ae72616e61
6f6d77c3a26c69 6b617a69
62616861 79c3ae72696b61
61 68616e6461
646f 6c61
6e616b75 79c3aa72656b61
65 6c7562696269
62 72616e697961
79756e6a 77697265
6465 6b61
6d656c 6b697365
6d656c6b697365 6465
6d656c6b6973656465 6b69
6e61 7268c3b46c61
6261 6b6f7a61
656e6461 6b75
67756b75 6d61
6261 68c3a2
67616c61 6d697261
72686f67657261 6b776f
6c69 646572687761
6b616761 796f
6675 6d62696b61
627761 7969736861
6173 c3aa7a65
6f6d756e7961 6279c3a26861
6c69 6b616c69
6261 6c616e6765
68 7975
626f 6e
6261726861 73c3a267
6d7761 6261
6261 79c3ae72696b61
6f6e61 6d616e7965
656269 6ec3aa6ec3aa6ec3a8
6d7568c3a2 6e7969
7761 79c3ae726861
6f 67657265
6369 6c61
6777c3a27268 697265
6162757268697261 6761
6e676f 6e6f
62c3a2 6c796f
6265 747765
6265747765 6c69
726869 6e64
7a6972697269 6e6761
6167616c61 6d697261
6f63c3ae 73686f6765
6172 6261
6b69 796f
7975 7361
61 6c79
616c79 c3a8
6e61 6b756c61
6e61 6c6f6e7a61677961
61 7368616d62c3a26c697261
68697361 6b776f
6e61 6277c3ae7a697265
6d69 6275
747769 6b616e7961
6d61 7361
6a697a 6972616765
72687765 7261
7477c3ae 6b65
6f6277 656865
6b75 6a6972697261
6b77 656e6765
6f 6e7465
6d75736865 676f
61 62756c6167697261
616e61 6777c3aa726865
616b75 68c3a8
6e75 6775726861
6e6b c3b4
6d75 6b6f6c657261
6e61 68c3ae7265
6f6c75 7a69
62 c3aa6e65
77616e 7961
6d61 68616e61
6f 6e646f
676f 7a61
6f 79616e6b6972697265
61 66756b616d6972697a61
7675 67756d756c61
6d75 79c3bb62616b65
7975 62616b61
6f6d75 7a69726f
6f726875 676f6e646f
6d75 7268656e7a65
6e7475 6d616761
7969736861 6765
6f6cc3bb 6e75
6d75 6cc3a26c69
69 67616c756c61
70657265 7369
736869 6269726972616761
686562 72616e697961
616261 736877c3aa6b65
69 6a616d776f
6e6b656e67 c3aa7261
77616e6b61 726875
6d616e69 6b7761
61 6777c3a272687761
616261 7268696e6469
61 6c6f6e7a65
67756c69 6769
6f6b75 62c3aa727761
61 736967c3ae7265
6cc3aa7265 7a69
616261 6875
6261 68616e6461
62616e61 626f6e61
72687761 7268656e6761
7368 616e65
6d75 73687562697265
6b61 6c757368697265
62616e61 726875
68 69726972616761
7a6f 6ec3a86e65
736861726875 6c61
c3b4 6b657261
6275 63c3a26ec3bb6c61
61 79c3aa72656bc3ae6e65
656369 6a69726f
6a6972 c3ae727765
79c3bb6261 7361
61 7268756d616761
6d77 616e616d75
6b75 686972616b776f
616261 79c3aa72656b61
6d70 c3a8
6465726865 7265
6d70 697269
65 6c757368697265
7969 6e616d756b61
63c3a0 7268756d697265
77c3ae 736869
6261 79c3bb7368c3bb6b61
616e616369 79616e646167616c697261
796f6e 7361
6f 6e74756d697265
726875 6a69
6c6f6e67c3b4 6c616e61
6f726875 6d65
616d75 72686567656b616761
6261 66756b616d61
6f6b75 7268696e646962757a61
6c6f6c65 6b776f
6e6e75 6e646f
656e 6e75
656e6e75 6e646f
7969 6861
726875 67656e6469
6275726861 6b776f
616269 6875
6b 7269
6162616b75 72756e6775
6361 79756e6a756c61
62616e 797765
61726861 6d6d75
6e61 6a6972697261
65 7268c3a2
6e6465 6b61
c3a06d75 7368757a61
66c3bb 6e696b61
65 6a697261
62c3ae 6861
65 7361
616e616369 747761
6269 64c3a2726869
6c75 7268c3a2
61 7ac3bb7361
72686f 687961
6f6c77 616e6a696b7761
61 68c3bb6e65
6275 7268c3a2
6d6275 6775726861
62c3a2 6d75
6d75 68616d6167616c65
c3a2 6d6d75
6f6d75 62756e6761
7761 7477c3a26761
6d756c69 6d7961
6f6d7769 7a697a69
6e74c3a2 626f
626163c3ae 6465726861
6c75 6b756c61
6275726861 6a6f6d61
73c3a2 6d61
6d75 6c77c3ae
6c75 67657265
6a 6f6e
62 79c3aa7275
6f6275 6e756e75
61 7268c3b46c65
6d6f676f 6d6f676f
6d657269 6261
62c3a2 6277c3a8
6168616e 7a697265
69 6a6972697261
656c69 79657a657269
79c3b4 62c3b4
6c77 616e
6c75 79756d7661
79c3b4 62c3b46c61
63c3a2 6c69
6e6e61 6d6261
6b75 68616e61
6b75 6a756861
616e6b61 66c3a0
616e6b61 6c656b61
79 616e6162c3a0
c3a0 6777c3aa726865
6e7461 6c6f6e7a697a69
6e69 677761
676f 6e7961
6c79c3a2 796f
69 68616e
6d75726861 6b61
657269 6d776f
69 7368696d6261
79697368c3ae 6765
6e69 6b6f
7a69 6a65
65 6b617a69
7265 6d61
7a69 6b617a69
6d6f6c65 6b657265
6d61 7268616e7a69
6d61 7a696e6461
6c77c3a2 6b6f
6e7965 726f
6e74656765 73697265
6f6c75 6b616e
6f 68616e
7961 62776f
726875 62757965
62616e 7465
6265 6b65
68 c3b2
62616b617a69 72686572656bc3aa7261
6b616c61 62697261
76756e67756e7975 6c65
6b656e67c3aa 7a6f
626573616c65 6c69
79616e6469 6b616761
6e7969 6d626f
7761726875 7268656e7a61677961
74756c61 6761
6275 736f6c65
6f 79696d616e6765
616d61 68c3aa726f
616e616369 62756e67756c756b61
79 77c3a26e61
6b756c75 6c697261
7961 6c776f
73686f 6cc3b46c657261
67c3b4 7961
6261 6cc3aa726861
656269 6b77c3a26ec3ae6e65
6279616e 6b616e61
6b75 676572657261
6f6b75 6b616e67c3bb6c61
616b617369 726861
6261 7268656e
6179c3bb 6b6972697a61
6b61 62756c697261
79c3aa6dc3aa7265 727761
62756875 6d756c65
616e61 68c3a26e61
616e61 747761
77616e61 6a61
69 6675
6c616e 676f
68c3a2 67697a6f
69 646f
6269 6b6f6e646f
7477 697265
61726861 6d616e79697269
6879c3bb 6c697261
6b75 6a61
6e796167c3a2 7369
686f 7a61677961
6d6f6761 6d6f6761
6d75726861 67
7a6f 6e7a61
7965 67657a61
79 69727765
616e69 6761
6f726861 6b617ac3a267
6d75 6777c3a27369727765
6761 6b6f6c616761
65 79c3b473697265
6777c3a2 636f
6f6b75736875 6b61
6d77616e6b61 63c3ae
7961 79757368c3bb6b61
616b61 6b6f6261
62756c69 6e6769
62756c696e6769 7469
6f6c77 c3b47961
616e61 6d616e79c3ae7361
7ac3bb 73697265
6361 6275
6361 79757368c3bb6b61
656e 79c3b4
6369 626f6e65
62c3a2 6b776f
6562 79c3aa7275
6b61 66696e6a6f
63 c3aa7275
7368c3a2 6c69
6b75 79c3bb7368c3bb6c61
6c6f6c c3aa72657a65
6d6275 6c756c61
6b75 6b6f6cc3aa7361
656e676f 6865
616e61 7268756d65
6875 6261
6b75 6265
6e c3b4
6b7563c3ae 7368616c697361
62616dc3a2 6a697261
73686f 6d61677961
6369 7268616e6b61
6d75 79c3bb626173697265
7761 68c3a26e61
68656d756c61 6761
6f 7268c3ae6e7965
6f 6cc3b46c61
616b61726869 6e6461
61 736f
69 7369
6c616e 67c3bb7a61
65726861 63697269
616b61 64756d61
6c 6972616e61
62616e61 66c3a8
6d75726861 7368696d62616761
626572c3bb 6c65
6875 6dc3a26e7961
6865 6d756c65
6269 63c3ae
7675 6e6973697265
6c69 6dc3a26e61
65726861 6777c3aa726869
656369 6e79c3b4627761
6d75 62c3a26765
7368756775 7368756775
616261 6277c3ae7265
616e61 6a69726972616761
6f 6777c3a27369727765
6e6b61 6465726861
73686f6c6f 676f726861
726861 6d697261
6d75726861 79756d76c3ae726869
6869 6d6261
6d75 67616c69
69736875 7368697261
616e6b61 68617368
6f7761 6c6f6e7a61
6269 6e616261
77616e6b61 646573697265
77616e6b61 63c3ae73686f6d7961
62616e616369 68697261
6861 676f
6b75 676f6d657261
66756d6261 7361
616e61 7368757a61
616e61 6861736869
6f726875 6e6469
6b617a69 6a697261
79c3aa7265 6b616761
6f 79c3b473697265
64c3bb 6c65
62616e61 7368756269
736869 7a697265
6d757268616e 6769
79c3aa 72c3aa7261
6d77616e61 6b617a69
6d69 7368656b657261
6f 79c3aa72656b657265
656c69736861 6d61
656c697368616d61 cabf
6c c3b46e656e65
726877c3a2 6a6972616761
6d697269 616d75
6e 79c3b473697265
79c3aa 6e6a61
6761 7969736869
7961 67656e6469
6d6f 796f
6e74616e 676972697a61
616d75 68c3a26761
6b75 6275
6f6b756b617a69 6a697261
6461 74616e69
6162 697261
6d7765 6b69
6b616e61 6261
6261 79c3aa72656b657261
6d7761 7969
686972696769 7361
77616e61 6269
6261 7368c3bb62c3bb7a61
67c3a2 6c796f
6162616e7961 6d6f72656e69
6865 7365
656d69 67657a69
7265 7969
6469 626f6e69
677761 726861
6b65 6d6f736869
c3ac 7261
6f6b756b75 6a6972697261
6f726861 7969736869
6d75 6cc3a2
6e74 616e616369
79657265 7a69
656869 62c3ae
6265 6f7269
616d75 7268656e7a61
7069 6e6568617369
7a69 6d7269
6a6972 69727765
6d75726861 63697269
616e61 67656e6469
62616e7961 67616761
6d6275 6761
62616861 67756c61
626172686162c3a2 6c697261
6b65 6d69
6261 616c
6261 79c3bb7368c3bb6c61
6d75 62756c69
7969 6b697265
6c7761 68696b61
7261 6269
6b69727761 6d776f
6f6d7769 68c3b47a69
7361 6d6261
6d75 68c3a26e65
6869 6d697261
6d61 6b656e6775
6c75 7a696275
616261 62c3a0
67617969 73697a65
7a61 6d75
61726f 657269
62616e61 79c3bb62616b61
6f6e61 62c3a8
68c3a2 626f
72686f6e64 c3ae7265
6861 6b6f6c61
6261 79616e73697265
73687562c3ae 72697261
6861 7261
7761 6c656b61
616d61 726875
77 c3a06c696d776f
79c3b4626f 687761
6f72686179c3a2 67616c61677761
68c3aa7265 7261
6b756e6475 6c61
6869 6e7969
6261726861 7969736869
6f726861 79c3ae6261676972616761
656e6675 6e7a69
6f6b75 7a6967697261
657269 76617969
626973697265 6b776f
7761 79756d7661
616b61 7368616675
6563696675 6261
616b61 6b75
656269 68696d6269
6c79c3bb 7a61
63696275 6761
6f6d75 67616c7567616c75
6e6765 7a6f
6c75 6c656265
61726861 79756d7661
7ac3bb 6b697a61
61 6b756c696bc3ae7265
62616e61 6277c3ae7261
6d756c61 6c77c3a8
6973 69727765
697368 c3a2726861
62617268616e61 6d616e79697269
7268616e 7a697269
61 67616c756c61
6563c3aa 7268c3a8
62757a c3bb
6e616e 6469
6761 7269
7ac3ae 6d69
6d75 686568c3aa72657265
6d7061 6dc3ae72697a61
67c3a26e61 6761
67616c69 6d776f
64 7961
757269 6d75
656d69 626f
63697269 6769
6d75 676f6d61
697ac3ae 6b6f
726875 79756d7661
6c7562756e6775 62756e6775
6d75 7268c3ae6e7961
6c7761 6b756c696b6972616761
6261 66756d61
6f6c77c3b4 686f
6269 6869
616675 6e67697261
79c3aa 67c3aa7261
616261 67657a61
62616e616369 7368c3bb62c3bb7a616e7961
6261 686572c3aa72656b657265
617368 646f6469
6d75 736967616c61
6e6761 6c756b61
6f 74
6f74 6e69656c69
6261726861 68617368616761
68696e6f 6d69
7965736865 727761
6d69 6b69
7461 626f7261
7368 656d
7368c3bb 7a61
6f6b75726861 7368696e67c3a26ec3ae6e69
616d75 6277c3ae7a697265
6265 7a65
6167656e6469 79c3bb62616b61
77616d70 c3ae7265
6261736869 6761
6865 6c
6261 747765
6e616b61 7ac3a26769
6d756c61 6b697261
6761 63c3ae
6d69 6369
6261 6277c3a27268c3ae7265
616e61 68696b61
7961 7a69
656e7975 6e646f
6c77 697265
67657261 6d77
6d756c696e6469 7a6f
6168697269 6769
7a69 6261
6261 66756d626173697265
616e6163696269 73687761
61 6b696e7975
6d756e61 6277c3ae6e65
6f6d75 74696e69
6761 616c69
656d70 616e6761
617368756269 6ac3a0
6173 746172
616e616269 73687761
6d61 6f6e69
6179c3ae 6d696b61
6c61 6b776f
6269726861 62c3a0
65 7368
7475 6e67c3b46c61
67656e 7a6f
6c69 6bc3bb7a61
6d6f 6c61
676f 6865
6e616e61 79756d7661
6e 7361
6b75 7268616e61
7761 6675
656369 67616d6261
626163c3ae 796567c3bb6c61
6f 77c3a26765
616675 64756b61
61726861 6c6f6e7a61
6369 6b756c75
61 73686f62c3b47a61
6e616b61 6769
656e6461 6c77c3a8
6e69 6b616761
6361 6d7675
6f6d75 7368c3ae677761
616c69 6b6f6c61
62616869 6d7761
62616c75 73697a65
626163c3ae 736875626972697261
62697269 6769
7268c3aa 7a697265
7368c3bb62c3bb 6b697261
6875 6e79697265
6f6c75 68616761
7961 6869
6261 6a616d776f
6e61 6861736869
62616e69 6765
6f6d75 7268616e61
616869 7475
616e7961 67616761
616b61 6c796f
616b61 66c3a0
627761 6877c3ae7265
676179616775 7a697a65
6f6b75 6ac3a263697261
676f 6c697961
676f6c697961 7469
616e6163696d75 72686f6e64c3aa72657a61
6b75 6d616e79c3ae7361
6163c3ae 66756c6973697265
726875 6465726861
616e616369 68c3bb6e61
616861 6d61
6b61 68696b61
7675 6c756c61
626f 7761
6b756c61 6b697261
7469 656c69
6261 64c3a2726869
6369 7a696275
616e616e 797765
62616d75 6c61
61 6a616d776f
61726861 7969
6b61 7268696e6461
6e79616d75 6765
6e79616d756765 6765
616a 75
6269 6b697269
69 6b6f7a61
7368616e646162616e 65
66c3b4 6c65
65 7368696e67c3a26ec3ae6e65
626574697361 62657961
6d75 62c3bb6865
7368656765 6d697265
62756cc3ae 72c3ae
6d 79c3bb62616b6f
6d62617261 7a61
6c 79c3b46865
6d70 697265
6369 6879c3a2687961
656d69 6e7975
67616c61 6c61
79 616e6163696d75
687961 6a697261
6173c3a2 62756e6761
6179c3ae 6d616e
6c6972 79
736865 72657261
6e7961 6765
6d61 7368756d69
616e6163696d75 6a61686f
6275726861 6369
616b61 7368c3a8
656d6261 72616761
62616e64 7761
7368696e67616e 696e69
69 7268616d61
69 6cc3aa6261
6269 6b7562616769727761
6b616761 736861
73686f7368 c3aa7261
6f626f 6e6a6f
67616c75 7368697265
6d656e61 68656d75
686f 6e67c3aa7361
70656b61 6865
6179c3ae 7368697265
7965 6b6f
79c3b46369 627761
656e6765 726f
61 68c3aa6b7761
656369 6b616e7969
6e6761 6761
736865 62756e61
62617268616e61 6269
73686572c3aa7a69 7a65
61 79c3aa72656b616e65
6461 6b69
68657a65 6b6979616875
6d616e 67616e61
62616861 62756c61
6261736861 6bc3bb6c756c61
61 6bc3bb
6c756c69 7a69627761
72686f6e64c3aa7261 6761
6dc3b4 6b61
6f6275 6c616e7a69
656275 6c656d6265
6b75 646572687761
62c3a0 6c61
62c3a06c69 6d776f
626163c3ae 72686567616e79697a65
726869 62756b61
7268756d69 7a65
7969 6d6265
6b657265 6b61
67616e 7761
79 c3a06c69
6bc3bb6c61 6d776f
6f6b7562c3ae 6b61
6369 6b77c3ae
6f7961 6769727765
6c656e6765 72657a61
6275 79697261
62616b75 6277c3ae7261
79c3a2 7365
6d696b61 79616875
7975 6461
726875 6269
79656869 656c69
61 7a617269
62616d75 6b756c696b697261
68616e 67616e61
626167616c75 6c65
61726861 626162616c6972616761
6e 656e69
6c75 6c7761
6172 7461
61727461 7a65727a657369
62616e61 6c6f6e7a697a65
68756e6775 6d756c65
6d616c 6b697961
6b75 79c3aa6dc3aa7261
6275 6c796f
6e6f 62776f
6e7461 6a697261
6b6f6d65 7a65
6e6465 6b
72616765 7369
6f 68c3a26e61
6f 7368616c6973697265
656e6475 6c77c3a8
6275 6a697261
6b75 6e697261
616e616369 79616e64696b697261
68697269 6d65
6d75726861 6b75
6e64 616e
62616c69 6d62697261
616261 7a616d6261
6261 79756d7661677961
6269 79756d7661
696469 6e7965
61 6d616e79c3ae73697a65
61 68c3bb6e79697265
6f726875 6e7761
7961 6d62616c69
626173686f 6e79697265
616261676f 6c69
7461 7265
6c75 6cc3a8
62756c61 62756c61
6f6275 736869626972697a69
616261 736967c3ae7265
6d6f 6469
6d6f6469 6e69
616261 67616c7567616c75
67616761 6a7761
7a69 626162756d6265
796967c3ae7269 7ac3ae627765
6ac3a2 63697265
62c3a26e61 6a697265
67 72656b69
6277c3a2 67616c7761
656d70 c3bb
6f6b756c77c3ae7261 6d776f
62c3a0 726875
65 63c3ae626f
72687761 64657268616761
62616c65 73697265
7368c3a2 726861
6261 62756c616761
7265 7461
6f 6d62c3aa7265
616261 7369726865
61 79c3aa6dc3ae7265
737461 6469
6c77 616e64696b6f
6b77c3aa 627765
616b61 6c6f6e7a61
7368c3a2 62697261
64 616e64616261
6e6e61 6d616e79697265
6b756cc3bb 6b756cc3b9
7268616e67c3a2 6c65
6277c3a2 6c796f
6f 68c3a0
6c61 68697265
73c3b46d65 727765
6ac3a2 6765
6c65 6d69727765
6dc3b4 6a69
6275 79756e6a77c3ae7265
62616861 627573697265
6e61 6c616b697261
6c75 6dc3ae7265
616d 656e6765
6277c3b4 6865
6e 7368616c616c6f
6775 6861
6275 74c3bb6475
79c3a2 62756b697261
6b77c3a2 7268756d61
656e 79656e6761
6b61 68617369
656369726861 6261
6261726861 63c3ae
627761 79756d7661
6269 6e676f6c6f6e676f6c6f
6275 6777c3aa726865
69 6ec3aa
696ec3aa 6d61
68616d616761 6c6972616761
79c3ae 6761
6e616dc3a2 68657261
6b6f 6d62c3aa6475
6369 6e7961627567756d61
6b61 7368c3a26261
6b656e 67756c61
6c79c3a2 62c3a0
6d77 c3b46c6f
6b616c69 6d69
6f6277c3a2 67616c7761
6f6d75 6b6f7a69
656369 6e676f6c6f
7368c3bb 73697265
62c3a2 7969736869
726861 6d7961
74c3bb 627761
7368757368616e 7961
6275 7969736865
6f6b75726861 66c3a0
6777c3a2 676f
626163c3ae 79756e6a757a65
68697269 6d697265
6861736861 67
6f6d75 62696e6a69
7761 79c3aa72656b616e61
6c77c3b4 6865
6f6b7563c3ae 79756e6a757a61
69736875 62c3bb
6973687562c3bb 6b69726f
6d75 7368616b61
6d75 7ac3ae
77 c3ae7261
626f6ec3aa 7365
726865 62697265
6f7268616d75 64c3b47361677961
6c69 6c757368697265
6e 6ec3aa6ec3aa6ec3a8
6f6b75 73c3a27268617a61
6f 62616e6465
6f6b75 686572c3aa72656b657261
62c3a2 6bc3a2
6f6cc3bb 6a69
6ec3a26261 68c3a0
62616869 6e7a69
6f6b75 68c3aa6b7761
6cc3aa 6265
6d75726861 6a6972616761
6f6b75 6c656d62657261
6d617368616e 676f
63 6972
6277c3a2 6e61
69 79697368
6861 79697368
6ec3a2 6a61
6f 79756e6a77c3ae7265
6f6275 626172616761
62c3a26e61 6d616e7961
6275726861 73687562697261
696d75 64c3b47361
6f686f 7a697265
69 68c3a26e7761
6b75 6875736861
616e616b61 67
696469 6e6965
6d757a69 676972616e65
616d6d75 68c3a8
6b6f72 6e65
6b6f726e65 6c69796f
6d6172 6b6f
6f6275 68616dc3ae72697a65
616b61 6d616c6f
6f6275 7268756d697369
656269 7ac3ae6e65
62696e61 62c3a8
656269 6d6f6c65
6c7761 6bc3a267
6c79c3a2 6b776f
6168697261 6d776f
6e616b75 72686567656b616761
63696275 6e75
6d657475 736861
62616b61 6765
616d75 7969
616b75 6e6972697261
6d75 74757a69
616261 6b6f6c61
6f6d75 726861
7368656265 7969
6c75 7a697265
77c3a2 6a697261
6277c3a2 62796f
62696e7975 6e7969
6d61 6861736861
6861 6d
7a69 68696b61
6261 796f
6f6c75 7368616e646f
6369 686f6e7a69
726875 6465726865
c3a0 6c61
73616261 7461
706174726f 7369
7961 76616e69
6b697469 6d69
75 7275
626f6e656b657261 6761
6f6b61 6ac3a0
656b75 6c656d6265
6f 67756c69
61 6d6f72697469
6e74c3a2 68796f
65 63c3a26765
6f7761 6c656d616761
61 73696e6761
6261 6275726861677761
6e64 656e6765
6f 6e64c3aa7268657265
62c3ae7261 6765
696c69 62757a61
616d75 79616e6b65
6e61 6c757a61
6b61 73696e6761
616b75 6d6261
6275 6c756d65
6b77 616e6b6162c3a0
726875 6e797765
79696d616e 67616761
6c6f 62c3b46b61
6369 62c3aa7965
61 79c3b4626f68697265
77616d61 6369
6d77616e6b61 6465726861
6b75 73696761
6b756465726861 6761
6f6e61 6c6f6e7a697a65
6f726861 73c3a267
6f 6777c3a2726865
656e 67616e7961
616269 6e6a696b756c75
67617368 6972616761
6964c3b4 6d61
69 6277c3a27268616c61
61 72686567616e7961
6d75 62c3aa7261
6d756869 74697469
617368 7765
6f6d756c65 7a69
62c3a0 6c7961
616861 72c3a26d7961
6f6b75 72686f6e7961
6f6b75 79c3aa72656b61
656369 74616d62617261
6163c3ae 68756e64696b697261
6d75 7368756769
6f6e61 6c656b65
656b75 626f6b6f
7465 6d61
69 62616e6461
62616d75 6465726861
65 646f
6875 6b75
6162 c3aa
6861 6a697265
6f6d77c3ae 676173686f
616369 68616c69
73c3aa7a65 7261
6f726861 6ac3a26761
6e6769 736861
6ac3a2 6b776f
616b75 6769736861
616d75 6769736861
6e616d75 68c3ae7265
74616d61 6c65
6261 66756b61
616d75 7268756d697265
6e616e61 73687562
616c c3b4726861
616861 79c3ae72696b61
6c7761 6b617ac3a267
616d70 c3a0
61 6c656e67657a61
616d75 68c3b462657261
7761 73687562
696d75 6b6f6c657261
6879 616e616c69
616b c3aa7275
62696e61 79c3aa72656bc3ae7265
6e 7368616e646f
6761 6869
616d75 6a697265
6279c3a0 62c3a0
7368696e 7a697265
61 7268c3b47a697265
6f726861 7a69
63c3a2 6c69686f
6c756e6469 6b61
6475 6c61
6e61 6d616e7961
61 79616e73697265
6972 c3b4
676f 6d627961
6f7761 6269
6361 7a696761
7475 6e6461
7265 6d776f
62c3a0 6261
627961 73c3ae6dc3ae7361
6261 6b656d62c3bb6c65
6d706572c3aa7265 6b657a65
726875 79756d76616e7965
6369 68656d75
7965 6d657261
616d75 68696d61
62616275 7268697261677761
79756261 6b697261
6775 62c3a2
6661 7a69
7265 77656c69
6b616e 7a6f
726861 6761
686972616761 6b776f
62616d75 6b77c3aa6261
616e61 6c6f6e7a61
656d c3ae
6e61 6d697261
6d75726861 686972616761
62616d75 6777c3a2726865
6a61 68696b61
62756e 67616e61
61 7368616e6761
616b61 62c3aa6865
616d75 73687562697a61
6269 7268c3a2
68617368 6972
6b756c69 6e6761
6f6277c3ae 6e616765
7268 c3ae6e65
6e61 7369
6369 6e616c69
686f 726861
6e646f 6cc3aa72657a69
6c6f6c 616e616b776f
6f6b75 67756c61
67 6972c3ae7265
6e 69727761
64c3b4 7369627761
616e616369 68c3aa6b61
62616261 68c3aa6b61
6b75 6c697261
72686f 6e7a697265
69 6c616b697261
6f 68c3aa6b65
6f 62c3a26765
6d69 7a69676f
77 697269
62616dc3a2 7268656e6761
7761 62c3aa7261
6f6b75 7969736869
6d7769 6d616e67697a69
6b75 7368c3ae626972697261
61 68c3a0
7365 7369
6d 796f
736865 67657a61
616b75 6a697265
616261 7268656e7a61
656e67 616e61
6f6b756c75 68c3bb6b61
69 66
73686f 6bc3b46c61
6b75 6e656e65
616b61 726875
6261 796168756469
6f6b756d75 6a697261
6f6e 66c3a8
6e67 c3aa7a61
6369 68c3aa7369
6b776f 6b776f
6275 67616e61
6375 6d62696b61
62616e616369 67656e6469
6d75 63697261
616269 6d616e67697a69
646f 66616c69
7761 6a6972697261
6e6b75 7a61
6b75 6bc3a2
62616e61 79c3b4726861
62616a61 6769
6d61 7969
62616c69 62757a69627761
62616275 6e6761
61 6277c3ae7265
61726861 6c656b616761
656d69 6b756e67756c6f
62c3ae 68697265
79696e616d75 6c697261
6f 7268c3a0
6269 6b6f
69 6c6168697261
62616c69 62697268616b776f
6d756b61 626f6e61
77616b75 646573697265
68 616e6163697ac3bb6b61
7ac3a2 62c3a0
6f6b75 72686f6e61
6b756c69 6269726861
62c3a0 6a697261
656e7461 6b656d62c3bb6c7761
63696c75 6e646f
616d61 7368656b65
6e746572656b c3aa7265
6275 7a697265
626173686f 6e61
79c3a2 6b697265
6369 6b756e67757a6f
79c3b4 6b6f6c616761
6dc3bb 62616b6f
69 62c3a26c65
62c3ae 6bc3ae7265
62c3a0 6369
6e6e6f 6e6777c3a8
6c6f6e67c3b4 7a61
74616d61 7a61
c3a0 6a6972c3ae7265
6e61 6d6261
6f 747765
736861 6bc3a26e7961
6269 62c3a26d776f
6ec3a2 7969736861
6f6b75 79c3a26b697261
6bc3b4 6d6572657261
6f6b61 6c656b61
736865 627761
7761 726877c3aa7261
6f 6b616e
616261 70657265
61626170657265 7a69
7368616e646162616e 7965
69 79756d76c3ae7268697a61
6ec3a2 747761
69 7268c3bb6c61
62c3ae 73686f677761
6f6b75 7368616e67c3ae7261
69 68616a69
6277c3a2 6b6f
6775 6b617a69
6f6b75 73c3aa7a61
6369 74c3a26e69
62616b617a69 79c3b4726861
6d 79656e6461
6d756b61 7261
6f6d75 6c656e6761
656369 7a6972696b6f
6d69 6c6f6e676f
73 70
726875676f 6e646f
616b61 68616d696b697a6f
6d6275 72756e677573c3a8
6f6261 6a6972697265
726877616e 7a6f
726875 6b617a69
6b75 6b656e677761
6f6275 7461676174c3ae6675
6f 6cc3aa726865
6e 67616e6461
79c3b4 6b657265
736875 6bc3bb6c61
616a 69727761
6f6d75 7368c3ae6765
6c77c3a2 796f
6f6d75 63697261
6b65 727761
76616e 67616e7961
6ec3a2 6b617a69
616e616369 7368616d62c3a27a61
6777c3a2 6c776f
6c 6972697a61
616d61 73c3a2
6c75 79c3b4726861
6861736869 626f6e61
6b75 67656e6461
6e676f 62616e61
6bc3bb 6e6775
73c3b4 6b616e61
6b756e6775 736861
6f6b75 7368696761
726877c3a2 636f
6b75 73c3aa7a69627761
73687765 6b657261
65 6b617a
6b7761 6ac3a0
69 676572616d776f
6e616369 6a697261
62c3a06d75 79c3aa72656b61
617969 68697261
6769 6b61
62697269 6d776f
68697265 6d776f
6c65 726865
6f6b75 796f
7368616d62c3a2 7a65
7761 72686572656bc3aa7261
6f62756875 6d756c65
6d61 7268c3a0
656375 68c3a267697a6f
6761 677761
69 796f
6f6c756b616e 67c3bb6c6f
6275 6b7761
6361 63c3ae
6f6b75 79c3bb7368c3bb6c61
7ac3a2 6c776f
69 6e6f
6d6f6761 6d6f
6a616761 6cc3ae7265
62617268656e6761 6d776f
79c3aa72656b616e61 6761
6261 68c3a26e79697265
656269 7461676174c3ae6675
69 7268656e7a61
6d756c69 7a6f
6269 736875
627961 63c3ae
6d616761 6d6261
616e61 79c3b4726865
76c3bb 67757361
68616e 7a69
7a61 68696b61
63c3ae626f6e65 7261
61 6d616e79c3ae7365
6b75726861 6d697261
616e61 6c6f6cc3aa72657a61
6369 62616c65
6369 7268616e61
616e61 68756c756b61
67c3a2 6b75
616e6b61 6ac3a0
616e61 68617368697265
6d75 6a6972697261
6f77616e6b61 68756d61
6d7761 6d6261
656e 736861
616b6f 6c65
6e6761 6d697261
6f7268616e61 68c3ae72616761
6d697261 6b776f
6d756761 6c
6f62756b75 72756e6775
6f6bc3a2 7a6967697261
69 6b656e6761
6d7761 68696b61
6f7761 6c7961
72c3bb 6c65
6e6e61 7ac3a26c61
6d69 6769736865
736861 7268616e67756c61
61 72686572656bc3aa7265
6f6d75 66c3b9
7368c3bb 62756c61
6b75 79c3bb6b6972697a61
79c3aa6d c3aa727761
65 6b77c3a26ec3ae6e65
6b75 72686572656bc3aa7261
7368 77696e6a61
6d75 7268616e676972697a61
6b c3aa72657a61
6c75 6b657265
61 7268656e
6f79c3ae 6d697265
6f6b75 6c656e67616e7961
6b6f6cc3aa 7361677961
6b6f 7961
6277c3a2 67776f
67616c69 6b65
626f6e656b616e61 6761
6d77616e61 63c3ae
61 7268c3bb
6761 736967c3ae7265
6e64 c3b46c61
77616e61 7268c3b46c61
72686162c3a2 6c7761
6972c3a2 6e61
616e616369 7368616d62c3a26c61
6d756261 6cc3a8
62616e61 6b617ac3a26769
62616c75 7368697265
68617969 6c69
6f6b756b617a69 6b6f6c61
66 6972616761
7ac3a2 636f
6f6b75 686568c3aa7265727761
68656d75 6bc3ae7265
616e61 62756c69
6dc3b4 6d65
6f6b75 676973687761
6c7961 6d75
656269 72686567657369727765
6369 62616e6465
76756e61 6761
656c69 616275
77616e61 6b617a69
6861 7461
6d7761 68c3a2627761
6f726861 6c6f6e7a61
616a69 6277c3ae7261
72687761 6261
6d75 79616e6b6972697261
7a 616e7965
61 79c3aa72656b657261
6f6b75 7368616d62c3a26c61
627769 6e65
7265 68
726568 6f6275
6369 79c3b473697265
736865 736861
68756e6775 6d756b697261
6465726865 72616761
726865 6d61
6f7761 6d61
6d77616e6b61 6a697261
6275 6b6f6c616761
6865 73697265
6d6972616e 6775
6d75 736861
7368696d6275 6c697261
62616c69 6269
6f6c75 6e796572657265
6b75 6b6f6c657261
6d70 79c3bb6c6f
6865 6b657265
616e61 7969736869
6475 6e6775
726875 7268656e6765
62616d6269 7a697a65
62616e616369 73c3b46b657261
6e64c3bb 6b697261
68657365 626f6e69
616261736869 7a69
61 796972756b61
686568c3aa7265 727765
6c7761 7268656e6761
6261 616c61
6265 796f
74 656e
617268616369 62c3a0
736869 6e6a69
656d6275 6b6f
616e61 67616c69
617369 6e7a61
616261 79697368
6865 66657269
68756c75 6b616e61
6c697261 677761
6b616e 7765
7a 656e69
7365 6661
6261 68c3a26269727765
656d 62696269
7a61 6261
6d69 6dc3a26e61
7761 68696b61
73686f 6d62697265
61726875 726865676573697265
6e61 72686567656b61
68616e 7a697a65
656c61 7469
6277 6972616761
6275736f 6e6765727765
6f63c3ae 626f6e657265
6269 6d756c69
6a69 6a697265
6c77 c3b46e65
6d69 6c617ac3b4
7368c3bb62c3bb 6c697a65
6e6465 6265
7a69 7368696e67c3a26ec3ae6e65
7268756c69 6d776f
6465 7268
6f7a69 67697265
61726861 6269
76756e79756e6775 6c61
677761 6b616e61
6b656e 7a697265
6861 7268616e61
616d61 68697269
6f6d75 7368616d756b61
6d69 7ac3aa7469
6e6475 6269
6e7461 6b616e
6f 79616e646167616c65
6261 6b656e6765
6f6e61 6c7965
6761 6b617ac3a267
62616d62616c69 6b617a69
6f726861 79c3aa6dc3aa72616761
62616e61 79c3ae
6b75 626162616c697261
616261 62616c697265
7a6967697261 6761
6b75 7268656e7a61
6861 6c656265
656e7475 6d7661
62616e61 6275
656e 79c3bb
6c7769 68c3b46c6f
62616e 676f
62616e64 697265
616e61 686f
61726861 6b616e61
6777c3a27268 6972697a61
67657261 67657261
6775 6d756c69
7368c3bb 72687761
73697261 6861
656e7368616761 6475
627961 7268756d61
6865 726865
6c7961 6465726861
686f 6e657261
626167617368c3a26e69 7a61
6c77c3ae 6b6f
6f6d75 7ac3ae
6869 6b697261
6c75 7268616e61
73686f 6e61
6c61 6d626167697261
7761 7368756269
62696e61 64657369727765
6b61 7a696e6461
7268 7961
6261 6b6f7a697265
616d61 6b77c3a26e616e65
7268 77c3a27765
6b 6972c3ae7265
726877c3a26c69 6865
6269 6875
6b75 7969736869
64 697269
64697269 736861
6761 6a697261
726875 7268756d697265
6c75 7969
6f6b75 68696d61
67656e6465 6b61
6d77616e 616e
6465 62697269
6d616b65 6461
676f 7369
6775 6761
7965 736869
6869 6d616761
6269726861 67616b776f
6d6168616e61 79696d69
7268c3b4 6c7761
6261 62616e69
74696d 6e61
736865 616e69
62c3a26e61 72686162616e61
7365 7a61
616269 79657a657269
627761 6d776f
6d61 7265
6c69 7268656e6761
73686f 7a69727765
616b61 7969736861
62c3aa 7368c3bb7a61
72687761 6465726861
6261 64657268616761
62616e616369 73687562697261
6d75726861 726861
616a 6972c3ae
62616e616369 6c616b697261
626163c3ae 72616e757a69
616e616369 72686162c3a26c697261
6d657a6f 706f
6d657a6f706f 7461
6d657a6f706f7461 6d697961
6261726875 7a69
6c6f6e676f 6c616e61
617969 67c3ae7269
7961 68656c69
6d616875 6b756c75
7a61 67656e6461
6f62757368656e6765 72657265
7761 79c3b4726861
6f66 7261
61 68c3bb
72 6261
6261 67616ec3ae7261
62616d75 79c3ae7268697261
79616e6461 67616c697a65
6e64 c3aa7a61
6c75 7368697269
6f 6a616765
6775 7369
61 7368c3a26261
726875 6777c3a27369727765
6b65 6c6f6e69
6269 6e756e75
6b75 6777c3a2726861
6369 6e7969
64616c69 6c61
63616275 7268696e6461
79696775 6c697261
686f6e676f 6b657261
6c77 616e616c69
656e75 6e646f
626179c3ae6d616e 7a61
62617368616761 6d756b697261
62616869 6e6461
626179c3ae 73697265
73 7261
6f6b75 62616e6461
617368 616e61
6973c3a2 72c3bb6c61
616b75 6277c3ae7261
c3aa 7365
6d6269 7a65
656c69 6875
6b656e6761 6761
6179c3bb 7368c3bb6b61
62616e61 63697269
6c75 6b77c3a26ec3ae6e65
616c65 73697265
79c3a2 6bc3bb7a65
6261 68616c69
6261726861 6c656b616761
73696d69 6b65
616869 6d7761
6261 6c77c3ae7261
61626179c3ae726861 6d776f
63c3a2 676f
6277 616e616c69
7961 62616761
6f6b75 68c3a2627761
736869 62
616e6461 677761
6261 6b656e6761
62616cc3a2 6c696b65
72687761 6c6f6e7a61
79c3b46b6f 6b65
6d69 6b697261
6d7761 7368656e6761
62616261 7a697a65
6168 c3ae
6d696b69 6d617369
6265 746f
6f6b7563c3ae 6a697261
616e61 68696d61
68756c75 6c697261
6168697475 6275
6775 6b65
6d7069 6e6475
6f 79c3ae726865
79c3bb 6e6a757a61
6b61 6b6f
616a69 6c77c3ae7361
616e64 c3ae
6179c3ae 73697265
6c75 6e67616e61
6b7761 6d75
616b6f 6d
616b6f6d c3aa72657a61
6d7761 6d7069
736861 6d62c3ae7265
6e746f 6e7961
6765 6dc3ae7265
79756d76616e7961 677961
65 7a657269
6f6b75 7368c3bb726861
6162616c69 62697369
6b75 7268616e
6f726875 626f6e6a6f
6f6b75 72686162c3a26c697261
6163c3ae 66756c696b61
7a69 6661
77616d75 7268756d616761
62616e6163696d75 68c3aa6b61
7761726875 68c3a26761
6775 6a697265
626168696b61 6b776f
7961 6461
656e 6b756d6261
66 6972c3ae7265
616275726861 677761
6d75 79616d62616c65
616e616369 67616c756b61
62c3a2 6ec3a2
616d75 7268756d697261
62617368696dc3a2 6e616e61
616e616369 6775
6d757268696e6469 7369
62616c61 6d626167697261
6261 6777c3ae6b61
6ac3a2 63c3ae7265
6f 72756b61
6f72756b61 7261
6761 6cc3ae7265
6b75 7969736861
6f7961 6d62616c65
61 73c3ae6dc3ae7361
6d75 67616c756b65
6775 6b697261
6f6b75 6761796167757a61
726875 66c3a2
72687566c3a2 6e7761
6777c3aa 7268616765
6f6b75 7368c3a26261
6d61726861 6269
74756c75 7475
736861 6b616e7961
6e6469 6d776f
6e 79c3aa72656bc3ae7265
736869 6d62c3bb6c697261
61 6d616e79
6d61 7268656e64c3aa7a65
65 7365
6562 6972696261
6d69 6ec3a27261
79756dc3a2 6e616e61
79c3aa72656b65 72c3ae6e65
6f6c75 6b657265
7268 c3aa727761
686972616761 6d776f
6e 73686f6c6f
7368756e67c3bb 72686f
6e6163c3ae 73686f67616761
61 626f6e656b616e61
62617268616e 6b616e61
63 69726f6e646f
656d696e7975 6c69
6e61 7268756d616761
7368c3ae 6dc3a26e61
616d61 7268c3ae
6e64 697269
79616e6469 7369727769
7a696d75 7269
656369 68c3aa7369
6f6261 64
6f626164 79616875
6e696f 6b6f
6e7461 68696d7761
7461 6b697261
656e 616b75
65 6261
6f 73c3ae6d697265
616b756e6775 7368616761
62616e617961 6d62c3ae726865
6f6b75 79c3a26d61
726875 6c7965
657a69 7268616c69
61 6c616e6765
61 73c3a27268616c61
726865 6d657265
6261 6b756c696bc3ae7265
6269 67616c61
686f6e796f 676f6c61
7368696dc3a26e61 6761
7368 c3ae7265
616261 686972616b776f
62616861 7368
676f 6bc3b46c61
72656d61 6c79616875
7261 736f6e69
6261 79c3ae6d61
62616a616e6469 6b61
726865 62616761
6c69 6d62697261
656d 6972656865
73c3a272c3bb 6c65
6d62756c697261 6b776f
6269 73687761
616261 6c616e6761
7269 626c61
6461 7961
6269 6e616d75
62616d75 68697361
6162616c61 67757a69
656279c3bb 73686f
6d61 74616e7961
616261 74757a69
6765 64616c69
616261 6b6f6dc3aa72657a61
6d65736875 6c616d75
736865 6c6f
7368656c6f 6d697469
6265 72697961
796f7a61 62616469
6261 79c3aa6dc3ae7265
6e64 77c3ae7265
6179c3ae 736869
616e61 6b77c3a26ec3ae6e65
6a756775 6d65
7969 6d62697265
6f 6e7a6967697261
64c3bb 6e6461
7675 7268697261
6d75 6a61
69 73686572c3aa7a61
62c3a0 6a697a697265
65 65
726865 67616e796f
6869 7a69727765
77c3ae 727765
656269 64616e6761
6369 6e6a696e6a61
726869 7a65
6e6e61 62796f
6dc3ae 7275
72686567616e7969 7a61677961
6875 72616d69
6e61 79c3bb62616b61
7ac3a0 6bc3a267
626168c3aa6b61 677761
656269 7a696e6461
616d61736875 7a6f
79c3ae 7368697265
61 76756e61
6775 7368696e67c3a26ec3ae6e65
6275 6bc3b9
7a61 62616469
79c3a2 6c697a61
6261736861 67616c756b61
62616261 68c3a0
6277 c3b46e656e65
6275 63c3aa7365
6761 79616e64697369727765
616d6f 747369
61 6c6f6e7a
69 726869
68696c69 6b6979616875
6bc3bb 6c756c7761
6d7761 726875
67616e64c3a2 7a65
79c3aa 67c3bb6c65
6d70616e 79697265
696261 72617469
6c756c69 7ac3ae627765
686f 6e65
6e79756e6a 77c3ae7265
6b757268616e6b61 68617368696b616e61
6b65 6c69
6e 616e6163696277c3ae7261
6f6275 73c3a2
72687761 6b617ac3a267
79 c3ae7265
6f6b75 6c6168697261
62c3ae 72686f6e7a69
62617969 6775726861
6b757a69 627765
69 6c79c3bb6c61
66c3bb6c61 676f
67616261 656c69
796f6e676f6c6f 6b61
69 68616e61
6f6275 64696b75
6564 6e61
6d75 73686167616c756b65
6f6275 66756d75
69 6b757a61
616261 73c3ae6d61
6361 7368756261
6f6b75 686972696d61
6e64616e 67c3a26cc3ae7265
626167617961 67757a61677961
6f6b75 68616e61
6e69 7369
627961 79697368
6c656e6765 7a697a65
62616e61 79756d7665
666f6e666f 6d657261
68616d616761 6c7761
62756e 6777c3aa726865
69 6e6a61
6261 7477c3ae
62c3ae 7369
6f6b75 6b757a69627761
6261 72686f
626f 6d626f
6f6c75 74617265
7965 6b6f6c61
6f6b75 68657261
6269 6879c3a2687961
73687562 6972
6269 726875
6d617369 6e69
6f6b756c69 62757a61
6e7461 6dc3ae7265
6d75 74756e676f
61 7368c3ae626972697261
6172686f6e64 c3aa72
62616d75 7368c3bb726861
6369 746572757369
616e64 726f6e69
6d70616e 67617a61
6f6b75 68696e64756c61
7761 7268616e676167
616e616369 6477c3ae726865
6261 6b6f6c65
6d75 68657261
6e7475 6c69
6f6b7563c3ae 6b75626167697261
6e616e c3ae
6e6b61 6369
6e61 7961
6f6d75 7a616d6261
6b6f6e6f 6c61
6b6f6e6f 6c657261
7969 62756b61
6163c3ae 66696e6a61
6ac3ae 627761
7761 6d6275
6f6c75 6e696769
6d62 7965
6f 6e6675
6f6275 7268c3bb6c6972697a65
6c69726861 6b616369
7368657265 7a61
6761 79756e6a77c3ae7265
7368c3b4 6d6261
6b75 6e797765726861
62616e 6e696e61
6f6d75 68656e67657265
63 69726f
79c3aa72656b c3ae7a65
6d69 7ac3ae
656e7469 6d616e7961
6f62756461 67756cc3a8
6f6275 6365
6e 7a
6f6d77c3ae 73686f677761
6e676f 73697265
6f6d75 68657261
68756c69 7361
6f 6e74656765
62c3ae 7268c3b4687965
6e6b656e67 c3aa7265
6f726861 6275
616261 67617368c3a26e697a61
6761 7268c3a2
65726861 68696d7761
616d61 726f686f
6777c3ae 73697265
74616b c3ae72697261
6261 6d7075
61726861 6275
6e61 79c3bb
6e 63756e6775
6a756775 63697261
7a69 7268616e
62616275 6d62697265
62756861 677765
6275 686973697265
6775 79c3a2
656d70 697269
656269 68756c69
6e7461 7a69
6e6477c3ae 7268616765
68616e7961 67c3ae7265
6f 79696d756b65
73686f6265 6b65
726875 76756861
62616d75 7268c3ae6e7961
c3a0 64657268616761
6f6275 6b6f6d62c3aa6475
6275 72686572656bc3aa7265
6bc3bb 6c697a61
6e67 c3ae7265
6b616c69 6869727761
62756c69 6d6269
6277c3a2726861 6c6f
627761 63c3ae
73686f6d 62616e61
6e616e 6461
6275 6b656e7969
6775 6261
6f 68696e6761
6c75 6465726861
6b75 62c3aa736861
6b75 7368c3a26261
656369 6e67616e7969
7368696e6761 6761
67616e 697261
617268616b61 626f6e61
7ac3a2 7969736861
65636962c3ae 6b69726f
6e61 6c6f6e7a697a65
656279c3a2 62c3a0
6f6275 62c3a26e69
6275 6b697265
726877 c3a0
616261 6c656e7a69
69 626f6e656b61
6e 73686167616c69
6775 73696e67c3b46e6f6c65
6f 6b656e6765
736875 736865
61726861 62616761
7ac3a2 6d776f
617368 656e6765
656269 72687761
6c656e 67616e79697a65
6d7061 6761
627579c3bb 6dc3bb73697265
7961 6c616e67617368616e61
6c75 6b6f6261
656269 74616d62617261
656369 67756e6475
616261736869 6d62c3bb6c697a69
68616e 697261
6e6f 6675
696d75 79c3ae726861
6f6275 72686562616e7969
6f6d75 796967c3ae72697a61
6f726875 68616d696b697a6f
6d75 63697269
6e616e61 6c69
6d756e6163c3ae 7368696e6765
62616e7461 6b656d62c3bb6c7761
726877 696e7975
6261 68616d61
6ec3a2 6b617a
616b75 646573697265
79756e6a75 6c697a65
726875 79c3aa6dc3ae7265
62c3a2 7368756269
6e6562757a61 7264616e69
656269 7368756dc3bb7369
6f6275 63c3ae79756e6a757a65
77c3a2 66c3a0
6d77c3a26e61 6d616e7961
62616b65 72c3bb6269
726865726572656b c3aa7261
6e65 67c3aa
6e6567c3aa 6275
6168 77
616877 c3b46c61
6e61 68c3bb6e61
6861 62616b75
686162616b75 6b69
6ec3a2 686572c3aa72656b657a61
6b75 68c3a2627761
6e7461 6b77c3a26ec3ae6e69
6261 6777c3aa72687765
6b616c61 6261726861
6b6f6d61 6d6261
616369 7268656e6761
62656c 7a65
62656c7a65 62756269
626574697361 7969
6265746973617969 6461
677761 79697368
6f6d75 6375
6f6d756375 6bc3a0
6b75 66c3bb6b61
6d616e75 6b616761
616261 6d627765
656869 647567756e6475
6f6d756261 6d6265
6f 77c3a26e61
6277c3ae6e65 6b776f
6d6d756c69 6d776f
73746566 616e6f
6b65 6d6277c3ae
6c75 7477c3ae727765
6d756861 62697265
6c61 6f6469
6c616f6469 6365
6c616f64696365 7961
6f6d75 79616e64696b697265
74616dc3ae7265 6b776f
726861 6d62756c61
64c3bb 7361
6d756275 6d6265
6269 6d6f6c65
6c69 79c3b473697265
6f726875 73696d6261
6c656865 6b61
68756c75 7a61
6769 686f6e69
69 68756c756c61
776163c3ae 73686f6d7961
6b61 76756861
61 7268656e7a697265
69 79756d76616e7961
79616c69 6d776f
6d61 7ac3bb6c75
7469 67
66 7261
6669 6e6a
626f6e61 7965
65 7661
656e73686f 676f
616d75 6869
65 6ac3a0
6c69 6b697261
6b757a69 646f
6761 796967756b61
6bc3a2 6c7961
6163c3ae 67657a6167657a61
626163c3ae 66756c696b61
7365 74
79c3a2 67617a61
6e61 79c3ae726861
6b776f 6b69
686f 6c65
6f 77616e61
6d6168616c61 6c65
6d6168616c616c65 656c
6b656e 616e
7365 7469
6275 6dc3ae6e7961
6261 6461
6563 c3ae7265
6861 736967616c61
79616e69 61
65 6c697261
676572657265 7a61
7961 66657469
63696e7975 6d616e7975
63696e79756d616e7975 6dc3a0
7261 79696d75
7265 686f
6e61 6675
736869 6e65
796f 6b6f
6861 7361
676f 6d657269
61 646572687761
7065 6c65
70656c65 6769
7365 626f
6e69 6d
74 697261
73656c61 6869
62617368616e6461 62616e7961
726875 79c3bb62616b65
6e616c69 6e6461
68616e 64c3bb6c61
62757a69 6b69726f
7761 6ac3a26761
64c3b4 6d65
796f 796f
6d75 6869726869
62616e 74
61 6cc3ae6bc3bb7a61
6162616c69 62697268616b776f
6c7769 6b697a61
616261706572697a69 7469
726875 6e696b65
6f6e61 68617368697265
63616d75 6777c3a2726861
616e616369 7368696dc3a26e61
7761 6275726861
79c3aa6dc3aa7265 72616761
6b756c75 7a61
616b61 677765
6b656e 7a697269
6173c3aa7a65 7261
6f726875 67617469
6f6e61 6b6f6c616761
6963c3ae 73686f6d7961
6b75 79696d616e6761
6369 6b656d6265
6d75 7268c3bb
6f6a697261 6765
6c6f6e 67c3ae7265
62c3a0 6ac3a0
6bc3bb6c61 6b776f
627769 627769
726875 73687562
6b756c61 6b776f
6168 616e61
62616e616369 62c3a0
6c 616e65
63c3a2 6ac3ae
6275 7268616e
6d756c65 6b657261
7969736861 6b776f
6e6e61 6d6d75
6f 6c616d61
74656765 6b616761
7761 6d6277c3ae72616761
736865 7361
6a61 6d75
656269 6e656e65
69 7268616e67756c61
7368616e 697261
616261 68756c757361
616861 736861
61 7268657265
7368 656d776f
616c61 6d697265
616e61 6cc3aa726861
656e7461 6d6269
626173686f 6e657261
6e 73687562697265
6e616d75 6e79657265
61 79c3b46d6f6c61
6562697369 6b69796f
6163c3ae 64c3b47361
6d75 6d6277c3ae7265
6e79 77c3aa7361
67657265 7a61677961
6e61 72686567616e79697a65
61 6b756c75
6f6b75 68697361
736865 62657261
64c3b4 6d61
696269 6e6461
7475 7261
62616b61 7a616769
6163c3ae 62c3aa72657261
6c6f6e 67c3b46c61
6d756c61 6d757361
72687761 626f6e61
66756e6469 6b65
66756e6469 6b616761
6261 7ac3bb6b61
6b75 7268756c75
6d7769 6b75626167697261
6168c3a2 6261677761
6e64 7965
6d7075 6d61
6b75 7368656b657261
6d62 6972
6179696261 67697265
6e74616b75 6c656b65
61 7a69627568697265
616e 75
61 72686f6e79697a65
6e6bc3b4 6d65
6e6bc3b46d65 6475
6865 72756b61
6d75676f 6265
6b616e 75
7a69 6c69
6f6d75 6e7761
6d75 73
6f6c757a69 6769727761
62c3ae 7275
73 656e6775
61726861 6a6972616761
77c3a2 6e65
6261 74616d616c61
6166c3bb 6b756c61
70 656e75
6b77616e 616e61
6c756761 6d6261
6d6261 62616c697261
6861 6a697261
6b c3ae7a65
6e79756d76c3ae 726865
6f 6c656b616765
6465 6b657265
6261 62c3aa7265
62616e61 6ac3a8
6e616269 6a697261
726877 616e6162c3a0
62616e616369 62617368757a61
616d75 6c656b61
6f6b75 7268656e67616d776f
62616869 6b65
6d756c65 7a69
6d7563c3ae 63c3aa7365
65 63617268756d616761
7965 75
796575 736869
6b6f 7261
656c69 66617a69
6865 6d61
6d69 74756c61
6cc3ae 6269727765
7268c3bb6c697269 7a69627761
6275 6cc3ae7265
6e61 6cc3b4
616e6163696d75 7268756d61
616475 6c616d69
6761 6d756c69
6f6e 616e69
62617268616e61 6d75
736861 7268697261
616e61 7268756d61
6e6e616e 79756d7061
61 66756c75
6261 736877c3aa6b65
73687765 6b7761
6261 736877c3aa6b657265
79616e 67756c69
65 67657261
65 7ac3a2626f
656e74 616e7a69
61 6c756e6461
7761 72686567656b61
6f6b756c75 7a61
6c7761 6c7961
6d756c61 6d61
6261 6277c3ae72616e61
726875 6e67c3a2
6d75726875 6d65
6d75 646573697265
726875 6c656b
6d75 73756e67756e75
6261 6877657261
677761 726865
6d61 726875
6d616e7969 7369627761
6d75 7368757a61
61726875 6277c3ae7261
6d75 67616c75
7761 6277c3ae7261
61 64c3b473697a65
726877616e6b61 6369
6f68697265 6d776f
62696e6a69 6b756c75
6869 6e7975
6d756e61 6c7965
62616d75 68c3aa6b65
6261726861 68696d7761
746f 6c61
736869 6d75
6265 6b657269
70 696d75
66 6972697265
6b75 66756c696b61
6d69 62697269
6d77616e61 6b617a
6d6d75 68c3a8
6465 6b6572657a61
616261 6769736861
61 6c7761
726875 68696b65
6e616369 68c3a0
65 6d616e
6966 c3aa6b61
6e61 62616761
6e61 6d65
6d75 726877c3aa7265
6e6a69 6b756cc3bb7a61
6ec3bb6e75 6775726861
6d757a69 6e7a69
6261 6b6f6cc3aa7361
6f6275 6bc3bb
726875 6c77c3ae7361
62616c61 6d65
79 77c3aa7361
6d75 73696761
7369 706f
616261 6b616e616e69
7965 74726f
6d65 6469
6d7761 67656e6461
6c7761 62616e6461
6e64 c3bb6c61
73686f6e65 7a61
6f6e61 68697265
6869 627761
62616a69 6277c3ae7261
616d61 646f66616c69
656d7069 6d6269
7969 687961
63696e61 7268756d697265
6d69 64c3a2726869
6167616e c3ae7a61
6d69 736861
616d616b75 72756e6775
68696e6475 6b616761
6168c3a2 6e616761
67616e69 7a61
6c75 79c3bb62616b61
6f 6c77c3a27765
627961 6369
7961 79756e6a756c61
6875 6d62697265
6c65 676572657265
7675 6e616e6761
616261 6a
6269 6675
7369 7a697265
6261 79616e646167616cc3ae7265
6269 6b65
62c3a0 7969
c3a2 79c3ae7368
7a69 6765
6f6b756261 68c3a0
6d756261 6277c3ae7265
6f6e616d75 6277c3ae7265
65 74616d69
c3a0 6bc3a267
7961 6269727761
617268616e 6461
6f6b75 66c3ae7261
62657265 6d776f
62616e 67616c61
63c3ae 6b757a61
62c3a0 726861
6761 62c3a26e61
6f6d75 6d69726f
63c3ae 6b61
6e6e61 6dc3a26861
79657265 6b657261
6d7761 79c3b4726861
626163c3ae 647564756d61
616d6d75 68c3a0
69 726877c3a8726877c3a8
6261 7477c3ae7261
6d757a69 72686f
7975 6b6972697a61
62c3a0 7969736861
61 7268656e7a61677961
79c3b462c3b4 6c65
616e616369 67656e64
63c3a26c69 67756d697a61
6e616c75 6a697261
6f6b617a69 6d6261
6f6b617a69 6b656e6761
7975 6d7761
6f6d75 67657261
63c3ae 6e7475
656e 6bc3a26675
617268616c69 6b776f
6d616e7969 6bc3ae6e65
6e6e61 796f
616e617969 72687765
6d6f 6d61
6f6d75 72686f
79616e 64c3bb
7969726861 677761
6963c3ae 79c3aa72656b616e61
6ec3a2 7268756d61
6f7761 62c3a0
6261726861 6769
6d69 7268616e7a69
6c7761 7368757a61
6261 73696e7a61
62616e61 72686572656bc3aa7261
7a697269 6b776f
726875 6d6f6c65
6f6b75 79c3b46361
72 616e65
6b75 6a65
62696c75 6e67c3ae6e65
656e73686f 6cc3b46c6f
6f6c75 73c3a2
6f6c7573c3a2 726869
6f6e69 6b697369
656d6261 6c65
656369 726865626f
6c756b616e 67c3a0
7961 79c3b4726861
79c3bb62616b65 6d776f
6b616c69 6e6761
656269 74756d62c3bb6b697a6f
62657265 6b61
6261 72686572656bc3ae7265
68697a697265 6d776f
69 68c3aa6b61
6f 7965
7a 616e6b61
6b656e67 c3aa7361
6f6b75 6277c3ae6b697261
656d69 67756675
616d61 6cc3a0
6f6c75 6e756ec3ae72697a69
62616b617a69 6c7961
726875 66656e6465
6f 736865
6b77c3a2 796f
7268757268616c69 6d776f
6f 6c6f6e7a65
62757268616c69 6d776f
6761 7675
6f6a697265 6d776f
6a616761 6d776f
74756d62c3bb6b697a61 6b776f
6168c3a2 6e65
7ac3a2 67776f
6c75 626f6e61
6c65 67616d61
6f726861 79697368697269
61736869 6d6275
6e616b75 68697261
61726861 6c79616761
7761 6a616d776f
6f62756861 6c616e6a697369
736861 6d6261
c3a0 6e616d75
6c75 7268656e6761
62616b617a69 6269
74c3a2 6b61
68c3bb 6e6761
656369 6ec3a27261
6861736869 6bc3ae6e65
6b61 6777c3aa726865
616e61 79697368c3ae6761
7475 6c697261
616b6f 6cc3aa
64 77
66 697269
6f6d75 6c6f6e676f
65 6b6f
6f6e61 6775
656369 73c3ae6b61
62616b617a69 6b6f6c61
63c3a0 62c3a26761
616dc3a2 68697261
6c77c3a2 636f
67756c69 6b776f
79c3bb7368c3bb6c65 6b776f
7368616d61 726861
656269 73c3a272c3bb6c7761
656e 6162c3a8
6265 6d776f
6769 7a65
6f6b75 63c3aa7361
6d76 c3bb6c61
69 626162616c69727761
6261 72686572656bc3aa72657261
6d 62756c69
61 79616e6b616761
77616e6b61 68756d61
79616875 6b697261
6d756b61 6765
636972c3ae 627761
72686572656bc3aa7261 677761
6f6c77c3b4 6765726f
736875 6bc3bb6c7761
6869 7268616c69
61 647562756c697261
6f 73687562c3bb7a65
61 6b6173
62616d75 68c3aa72657a61
6261 6769736861
79c3a26b61 6761
6261 66c3ae7261
6269 736967c3ae7265
7ac3a2 7a6f
7961 636f
627761 6b776f
6e 79c3bb
7675 6775
6369 6c656265
65 62756c69
6b69 6dc3a26e61
6d c3aa7275
616e61 7368756b61
6369726861 6a61
6b617a69 7a697265
63 616e616c69
6d657261 6d776f
6f6b75 6c6f6cc3aa72657a61
6b75726861 6c7573697265
61 79c3bb62616b65
6475 6c69
6f6d75 73686f6d796f
6c696b61 6b61
6e796f 6c6f
7675 6d7675
7761 6c6f
62616e 616e69
7268 c3b9
62616e61 73687562
6b75 73687562697261
656269 64616b61
6b75 62756c616761
61 7a697261
6b756261 6c616d61
6861 6c697261
69 6cc3aa7268657261
6d756b61 6761
6f 6b616761
6d6f 6c656b69
6162616c69 6d776f
6d756b61 63c3ae
65 6879c3a26765
6f6d756c69 6d7961
6d62c3bb 7a61
6e 6b6f6d61
6b75 68616e7761
616d75 72686f6e7961
6d7761 73c3a272c3bb6c61
616e6b61 7268c3b46c61
68616e 69727761
61 79616e6b65
69 6e61
697a 756c75
68c3a2 6e69
626163c3ae 6c616e6765
6dc3b4 6d7761
6c69 6b7761
6261726861 68c3ae7261
616369 6777c3aa726865
7761 636f
63697265 6265
6d756e61 6761
6c69686f 726861
656269 68756c75
6562697261 67c3a26e65
6d7761 7969736861
656d69 73687567757368756775
6761 6b617a
6875 6d62c3bb6c61
6369 68616e
616e61 73687562697265
616e6b61 6c6f6e7a61
6f6bc3a2 6b656e6761
687567c3bb 6761
73686f 676f
7a756e67756c75 7369727765
6d756e61 6c6f6e7a697a65
7a61677961 6d776f
6c69 62697268616b776f
6e 6e616e6761
6d75 62756c61
69 76756e61
69 6b656e67c3aa7261
676f6c6f 6e6a6f6b61
6e7461 6b616e616369
616b61 72686162616e61
616b616e 79657265
62616e61 79c3aa6dc3aa7261
6f6d75 6e67657265
6269 79c3b473697265
616e61 79c3bb7368c3bb6c61
6972 7769
68c3a26e61 677761
6b75736869 6761
62616b617a69 68c3aa6b61
62616b617a69 6c616e6761
6168c3a2 627765
616d6172687765 72687765
616269 686179696c69
6972 69727765
6c79c3a2 636f
62616b61 6a697261
656e61 6d6269
62616e61 68697261
6261 6d616c61
6e67 c3a8
6269 6b6f6c616761
6b75 686568c3aa7265727761
6b75 7975
6c 68c3aa6d61
7975 6d697265
6f6c75 67656d6265
6269 68c3aa6b61
62616e616369 68c3aa6b61
62616861 736869
7961 6a69727761
62616b617a69 79c3ae736861
62616c61 6d6f
726877c3aa 6b69
6d75 6b757a61
6769 6a61
68616e 7a65
7a69 6369
627761 686f
6f6275 6c6f
6d75 68756c756b65
6f6b75 73c3b46b61
736f 77616e69
6275 79c3aa72656b616e61
6e 7ac3ae6e65
77616e6b61 79c3ae726861
6c7961 6369
616c61 67c3a26e616e616761
67657a697265 6d776f
6e c3b46c61
73c3b46b657261 6761
6f6b75 68c3aa7261
6d77616e61 6a697261
6d75 79c3b4726861
6d75 68697261
6162697261 6d69
686168616e7975 6b61
62616a697265 6d776f
616261 6d61
656269 7268616e676972697a61
6e67616c75 6c697261
677761 73696e67c3b46e6f6c61
617268616e6b61 62c3a0
6d7761 6b776f
7268756c69 62757a61
6162616e7961 6d6f72697469
6c75 6b617a69
70 6973
7961 68617369
6564 72657969
616e616369 6c696b61
6d75 68c3bb7369
616e61 66756d626173697265
7961 626f6e61
65 79c3bb6261
6e79 6972616765
6b61 626f
6f6e61 79756d7665
77616e61 79756d7661
6e74 656e7a61
656d61 7368696e6a69
6275 67657261
6f6275 676572656d7761
6b75 686572c3aa72656b657261
6b75 67656e6469
6275 6e67c3bb
626168616e 7a697265
6f6d75 676f
7465 6c61
616261 6865
646f 7361
7369 7a697269
63616e6b61 7268756d616761
6d7761 68c3a0
6261 79616e6b6972697261
6d75 63c3aa7365
7761 79c3ae73697265
6d65 6f6e69
6261726861 626f6e65
61726f 77657269
616e616369 68696761
72687761 7268c3b46c61
6261 67656e7a696b616e7761
62616e616369 626f6e61
6e6775 736861
626163c3ae 7368696e6761
676f6c6f 6e6a6f
6f7761 79c3bb62616b616761
6b696e65 72657469
616861 736869
736875 6c697261
6465 6b65
74756e6475 6c696b61
6b75 6c697265
6172 6e61
6e7961 6875
6869 7661
6b61 67616c69
6163c3ae 67617368697265
6b7568696b61 6b776f
627961 6b617a69
6f6b75 62c3a2686f
6761 6277c3ae6e65
6c 6972616e
6f 6dc3bb
62c3aa 7368657261
616b75 6277c3ae7a697265
6b61 79756d7661
79756e6a75 7a61677961
6d61 68616e6f
6b616e61 6b75
6e79616d61 6b6f627761
62697261 6761
6f 79c3b4626f68697265
61 68756e67756d756c61
c3aa72 c3ae7a65
6d77616e61 626f6e61
6f6275 6c616c61
6e74616b616e 6a69727761
c3a0 646573697265
6777c3aa726865 6b776f
73c3b4 6bc3ae7265
[...]
